{
  "version": "1.0",
  "truncation": null,
  "padding": null,
  "added_tokens": [
    {
      "id": 0,
      "content": "[EOS]",
      "single_word": false,
      "lstrip": false,
      "rstrip": false,
      "normalized": false,
      "special": true
    },
    {
      "id": 1,
      "content": "[UNK]",
      "single_word": false,
      "lstrip": false,
      "rstrip": false,
      "normalized": false,
      "special": true
    },
    {
      "id": 2,
      "content": "[PAD]",
      "single_word": false,
      "lstrip": false,
      "rstrip": false,
      "normalized": false,
      "special": true
    },
    {
      "id": 3,
      "content": "[CLS]",
      "single_word": false,
      "lstrip": false,
      "rstrip": false,
      "normalized": false,
      "special": true
    },
    {
      "id": 4,
      "content": "[SEP]",
      "single_word": false,
      "lstrip": false,
      "rstrip": false,
      "normalized": false,
      "special": true
    }
  ],
  "normalizer": {
    "type": "Sequence",
    "normalizers": [
      {
        "type": "NFD"
      },
      {
        "type": "Lowercase"
      }
    ]
  },
  "pre_tokenizer": {
    "type": "Metaspace",
    "replacement": "▁",
    "prepend_scheme": "always",
    "split": true
  },
  "post_processor": null,
  "decoder": {
    "type": "Metaspace",
    "replacement": "▁",
    "prepend_scheme": "always",
    "split": true
  },
  "model": {
    "type": "BPE",
    "dropout": null,
    "unk_token": "[UNK]",
    "continuing_subword_prefix": null,
    "end_of_word_suffix": null,
    "fuse_unk": false,
    "byte_fallback": false,
    "ignore_merges": false,
    "vocab": {
      "[EOS]": 0,
      "[UNK]": 1,
      "[PAD]": 2,
      "[CLS]": 3,
      "[SEP]": 4,
      "\n": 5,
      "\r": 6,
      "!": 7,
      "\"": 8,
      "%": 9,
      "&": 10,
      "'": 11,
      "(": 12,
      ")": 13,
      "+": 14,
      ",": 15,
      "-": 16,
      ".": 17,
      "/": 18,
      "0": 19,
      "1": 20,
      "2": 21,
      "3": 22,
      "4": 23,
      "5": 24,
      "6": 25,
      "7": 26,
      "8": 27,
      "9": 28,
      ":": 29,
      ";": 30,
      "<": 31,
      "=": 32,
      ">": 33,
      "?": 34,
      "@": 35,
      "[": 36,
      "]": 37,
      "^": 38,
      "_": 39,
      "a": 40,
      "b": 41,
      "c": 42,
      "d": 43,
      "e": 44,
      "f": 45,
      "g": 46,
      "h": 47,
      "i": 48,
      "j": 49,
      "k": 50,
      "l": 51,
      "m": 52,
      "n": 53,
      "o": 54,
      "p": 55,
      "q": 56,
      "r": 57,
      "s": 58,
      "t": 59,
      "u": 60,
      "v": 61,
      "w": 62,
      "x": 63,
      "y": 64,
      "z": 65,
      "{": 66,
      "}": 67,
      " ": 68,
      "§": 69,
      "«": 70,
      "­": 71,
      "°": 72,
      "²": 73,
      "³": 74,
      "µ": 75,
      "¸": 76,
      "¹": 77,
      "º": 78,
      "»": 79,
      "¼": 80,
      "×": 81,
      "œ": 82,
      "ʹ": 83,
      "˂": 84,
      "ˮ": 85,
      "̀": 86,
      "́": 87,
      "̂": 88,
      "̆": 89,
      "̇": 90,
      "̈": 91,
      "̌": 92,
      "̧": 93,
      "α": 94,
      "β": 95,
      "γ": 96,
      "δ": 97,
      "ε": 98,
      "η": 99,
      "θ": 100,
      "ι": 101,
      "κ": 102,
      "λ": 103,
      "μ": 104,
      "ν": 105,
      "ο": 106,
      "π": 107,
      "ρ": 108,
      "ς": 109,
      "σ": 110,
      "τ": 111,
      "υ": 112,
      "χ": 113,
      "ω": 114,
      "а": 115,
      "в": 116,
      "г": 117,
      "д": 118,
      "е": 119,
      "ж": 120,
      "и": 121,
      "к": 122,
      "м": 123,
      "н": 124,
      "о": 125,
      "р": 126,
      "с": 127,
      "т": 128,
      "у": 129,
      "ц": 130,
      "ч": 131,
      "ᵉ": 132,
      "‒": 133,
      "–": 134,
      "—": 135,
      "―": 136,
      "‘": 137,
      "’": 138,
      "“": 139,
      "”": 140,
      "‟": 141,
      "•": 142,
      "…": 143,
      "‰": 144,
      "⁶": 145,
      "⁹": 146,
      "€": 147,
      "∑": 148,
      "−": 149,
      "∫": 150,
      "≤": 151,
      "▁": 152,
      "□": 153,
      "●": 154,
      "☐": 155,
      "ﬁ": 156,
      "ﬂ": 157,
      "▁d": 158,
      "é": 159,
      "es": 160,
      "▁l": 161,
      "on": 162,
      "ti": 163,
      "▁a": 164,
      "en": 165,
      "▁p": 166,
      "▁de": 167,
      "▁c": 168,
      "re": 169,
      "tion": 170,
      "▁s": 171,
      "an": 172,
      "is": 173,
      "ent": 174,
      "ar": 175,
      "ou": 176,
      "er": 177,
      "▁l'": 178,
      "le": 179,
      "in": 180,
      "▁e": 181,
      "▁m": 182,
      "▁la": 183,
      "it": 184,
      "ré": 185,
      "qu": 186,
      "ation": 187,
      "\r\n": 188,
      "or": 189,
      "▁des": 190,
      "▁à": 191,
      "▁le": 192,
      "ur": 193,
      "un": 194,
      "▁les": 195,
      "▁du": 196,
      "▁au": 197,
      "ment": 198,
      "▁et": 199,
      "▁d'": 200,
      "▁con": 201,
      "te": 202,
      "ic": 203,
      "tr": 204,
      "al": 205,
      "om": 206,
      "ant": 207,
      "si": 208,
      "▁dé": 209,
      ".\r\n": 210,
      "▁f": 211,
      "▁par": 212,
      "▁ou": 213,
      "▁n": 214,
      "ai": 215,
      "que": 216,
      "tic": 217,
      "▁pr": 218,
      "▁en": 219,
      "il": 220,
      "▁pré": 221,
      "se": 222,
      "és": 223,
      "▁re": 224,
      "ce": 225,
      "our": 226,
      "ans": 227,
      "▁com": 228,
      "▁un": 229,
      "ie": 230,
      "at": 231,
      "ér": 232,
      "▁ré": 233,
      "▁é": 234,
      "ticle": 235,
      "est": 236,
      "bl": 237,
      "ont": 238,
      "res": 239,
      "et": 240,
      "▁l'ar": 241,
      "el": 242,
      "tre": 243,
      "▁l'article": 244,
      "au": 245,
      "▁t": 246,
      "ité": 247,
      "▁in": 248,
      "de": 249,
      "as": 250,
      "▁pro": 251,
      "▁dans": 252,
      "pl": 253,
      "onn": 254,
      "▁est": 255,
      "ée": 256,
      "tions": 257,
      "ci": 258,
      "▁qu": 259,
      "▁v": 260,
      "me": 261,
      "ac": 262,
      "ées": 263,
      "▁pour": 264,
      " ;": 265,
      "ale": 266,
      "di": 267,
      "▁aux": 268,
      "po": 269,
      "aire": 270,
      " ;\r\n": 271,
      "▁ch": 272,
      "eu": 273,
      "▁mo": 274,
      "ention": 275,
      "ag": 276,
      "▁g": 277,
      "▁tr": 278,
      "▁d'un": 279,
      "ers": 280,
      "ement": 281,
      "les": 282,
      "▁co": 283,
      "us": 284,
      "▁sont": 285,
      "▁b": 286,
      "iv": 287,
      "ec": 288,
      "tiv": 289,
      "ations": 290,
      "▁comp": 291,
      "ap": 292,
      "im": 293,
      "ét": 294,
      "ch": 295,
      "sent": 296,
      "ul": 297,
      "▁sur": 298,
      "▁j": 299,
      "ure": 300,
      "▁ap": 301,
      "▁mention": 302,
      "tif": 303,
      "▁prév": 304,
      "▁so": 305,
      "▁ar": 306,
      "abl": 307,
      "▁mentionn": 308,
      "▁peu": 309,
      "ff": 310,
      "ig": 311,
      "▁une": 312,
      "ab": 313,
      "▁dis": 314,
      "ter": 315,
      "sion": 316,
      "▁r": 317,
      "té": 318,
      "ication": 319,
      "én": 320,
      "oi": 321,
      "▁comm": 322,
      "▁su": 323,
      "ance": 324,
      "▁1": 325,
      "orm": 326,
      "▁que": 327,
      "inis": 328,
      "▁ex": 329,
      "▁ac": 330,
      "ex": 331,
      "teur": 332,
      "op": 333,
      "ue": 334,
      "ais": 335,
      "▁qui": 336,
      "éd": 337,
      "sement": 338,
      "erv": 339,
      "posi": 340,
      " :": 341,
      "ion": 342,
      "ces": 343,
      "am": 344,
      "▁2": 345,
      "▁pers": 346,
      "ier": 347,
      "iè": 348,
      "▁personn": 349,
      "lle": 350,
      "▁déc": 351,
      "▁me": 352,
      "ors": 353,
      "pr": 354,
      "ubl": 355,
      "ique": 356,
      "▁dél": 357,
      "▁ti": 358,
      "oit": 359,
      "▁av": 360,
      "ction": 361,
      "av": 362,
      "ise": 363,
      "aires": 364,
      "ort": 365,
      "ins": 366,
      "du": 367,
      "ités": 368,
      "ice": 369,
      "▁pl": 370,
      "▁tou": 371,
      "▁peut": 372,
      "oc": 373,
      "▁leur": 374,
      "aux": 375,
      "tor": 376,
      "̂tre": 377,
      "▁contr": 378,
      "elle": 379,
      "▁al": 380,
      "▁lors": 381,
      "▁condi": 382,
      "ib": 383,
      "▁présent": 384,
      "▁cons": 385,
      "ix": 386,
      "▁publ": 387,
      "▁disposi": 388,
      "▁,": 389,
      "▁an": 390,
      "▁cas": 391,
      "▁code": 392,
      "mb": 393,
      "man": 394,
      "ir": 395,
      "ait": 396,
      "arg": 397,
      "▁d'une": 398,
      "ence": 399,
      "tu": 400,
      "▁conditions": 401,
      "▁i": 402,
      "▁ne": 403,
      "▁il": 404,
      "ques": 405,
      "seil": 406,
      "▁conseil": 407,
      "ol": 408,
      "▁pas": 409,
      "▁soci": 410,
      "▁rég": 411,
      "▁appl": 412,
      "ad": 413,
      "▁prévu": 414,
      "▁cet": 415,
      "ob": 416,
      "▁être": 417,
      "▁sou": 418,
      "▁ces": 419,
      "issement": 420,
      "▁charg": 421,
      "̀s": 422,
      "▁di": 423,
      " :\r\n": 424,
      "end": 425,
      "ts": 426,
      "entre": 427,
      "ouv": 428,
      "éc": 429,
      "form": 430,
      "ablissement": 431,
      "par": 432,
      "▁ét": 433,
      "▁h": 434,
      "iné": 435,
      "▁deman": 436,
      "ord": 437,
      "▁déf": 438,
      "tes": 439,
      "▁fon": 440,
      "▁son": 441,
      "rit": 442,
      "eur": 443,
      "▁serv": 444,
      "isation": 445,
      "▁l'ex": 446,
      "org": 447,
      "organ": 448,
      "ativ": 449,
      "able": 450,
      "▁dispositions": 451,
      "ens": 452,
      "ission": 453,
      "▁ad": 454,
      "▁ce": 455,
      "▁conc": 456,
      "ss": 457,
      "rê": 458,
      "og": 459,
      "ants": 460,
      "mes": 461,
      "ip": 462,
      "ign": 463,
      "ois": 464,
      "pré": 465,
      "port": 466,
      "▁cette": 467,
      "▁trans": 468,
      "▁ter": 469,
      "ég": 470,
      "érie": 471,
      "inistr": 472,
      "age": 473,
      "▁fix": 474,
      "céd": 475,
      "▁qu'": 476,
      "▁fr": 477,
      "▁artic": 478,
      "▁articles": 479,
      "sid": 480,
      "ales": 481,
      "tement": 482,
      "ot": 483,
      "ours": 484,
      "mpl": 485,
      "▁prévues": 486,
      "▁s'": 487,
      "▁aliné": 488,
      "▁titre": 489,
      "tie": 490,
      "erc": 491,
      "jet": 492,
      "▁demande": 493,
      "▁l'au": 494,
      "vent": 495,
      "▁res": 496,
      "▁public": 497,
      "▁mê": 498,
      "▁rec": 499,
      "▁lorsque": 500,
      "ux": 501,
      "id": 502,
      "▁sa": 503,
      "▁ass": 504,
      "▁l'in": 505,
      "▁commun": 506,
      "▁dire": 507,
      "rée": 508,
      "▁dr": 509,
      "▁ma": 510,
      "▁minis": 511,
      "▁droit": 512,
      "ass": 513,
      "ministr": 514,
      "▁prof": 515,
      "▁trav": 516,
      "▁sous": 517,
      "organis": 518,
      "▁fin": 519,
      "▁nation": 520,
      "ément": 521,
      "présent": 522,
      "▁gén": 523,
      "▁alinéa": 524,
      "▁représent": 525,
      "ine": 526,
      "insi": 527,
      "▁ainsi": 528,
      "os": 529,
      "▁rés": 530,
      "▁l'ac": 531,
      "ision": 532,
      "ult": 533,
      "ici": 534,
      "ô": 535,
      "▁20": 536,
      "▁im": 537,
      "rès": 538,
      "▁inter": 539,
      "▁te": 540,
      "▁génér": 541,
      "▁ju": 542,
      "sionn": 543,
      "▁se": 544,
      "▁\"": 545,
      "▁ag": 546,
      "▁memb": 547,
      "ten": 548,
      "▁pre": 549,
      "lement": 550,
      "▁profes": 551,
      "etat": 552,
      "̀g": 553,
      "▁entre": 554,
      "▁direc": 555,
      "ises": 556,
      "opér": 557,
      "><": 558,
      "▁produ": 559,
      "▁ins": 560,
      "▁l'autor": 561,
      "ché": 562,
      "tres": 563,
      "▁délai": 564,
      "iques": 565,
      "ui": 566,
      "ne": 567,
      "▁prem": 568,
      "▁l'en": 569,
      "▁rel": 570,
      "ables": 571,
      "▁ministre": 572,
      "▁peuvent": 573,
      "s,": 574,
      "▁ii": 575,
      "▁fait": 576,
      "▁dont": 577,
      "ution": 578,
      "elles": 579,
      "pon": 580,
      "▁form": 581,
      "▁application": 582,
      "tis": 583,
      "cep": 584,
      "▁personnes": 585,
      "▁même": 586,
      "▁mar": 587,
      "▁suiv": 588,
      "▁n'": 589,
      "▁personne": 590,
      "▁sup": 591,
      "éri": 592,
      "▁deux": 593,
      "appl": 594,
      "sident": 595,
      "̀re": 596,
      "ffec": 597,
      "▁3": 598,
      "ies": 599,
      "▁d'in": 600,
      "titu": 601,
      "▁sec": 602,
      "td": 603,
      "▁territ": 604,
      "▁mentionnés": 605,
      "▁nom": 606,
      "ate": 607,
      "alités": 608,
      "anc": 609,
      "▁si": 610,
      "▁.\r\n": 611,
      "▁per": 612,
      "▁colle": 613,
      "ail": 614,
      "▁avec": 615,
      "▁décision": 616,
      "▁professionn": 617,
      "tin": 618,
      "▁toute": 619,
      "anté": 620,
      "▁gr": 621,
      "▁chargé": 622,
      "▁établissement": 623,
      "▁mentionnées": 624,
      "▁santé": 625,
      "▁d'ac": 626,
      "▁mod": 627,
      "pos": 628,
      "ière": 629,
      "▁dépar": 630,
      "tivité": 631,
      "▁défin": 632,
      "quel": 633,
      "▁règ": 634,
      "▁ses": 635,
      "ices": 636,
      "▁président": 637,
      "ateur": 638,
      "oire": 639,
      "▁l'ét": 640,
      "ite": 641,
      "▁soit": 642,
      "▁o": 643,
      "▁région": 644,
      "▁concer": 645,
      "▁compét": 646,
      "▁département": 647,
      "▁mont": 648,
      "ative": 649,
      "and": 650,
      "▁procéd": 651,
      "ret": 652,
      "ge": 653,
      "▁autor": 654,
      "▁ann": 655,
      "alité": 656,
      "▁sociét": 657,
      "ures": 658,
      "écur": 659,
      "ième": 660,
      "▁sécur": 661,
      "sig": 662,
      "▁commission": 663,
      "ente": 664,
      "▁organis": 665,
      "com": 666,
      "▁l'autorité": 667,
      "qu'": 668,
      "▁applic": 669,
      "tru": 670,
      "▁ég": 671,
      "▁tout": 672,
      "▁conv": 673,
      "ents": 674,
      "▁service": 675,
      "ant,": 676,
      "ation,": 677,
      "met": 678,
      "▁contrat": 679,
      "▁sécurité": 680,
      "▁article": 681,
      "ements": 682,
      "▁modalités": 683,
      "uti": 684,
      "ut": 685,
      "tifs": 686,
      "▁général": 687,
      "▁premier": 688,
      "éf": 689,
      "▁(": 690,
      "▁donn": 691,
      "cr": 692,
      "▁st": 693,
      "▁mois": 694,
      "▁durée": 695,
      "▁jus": 696,
      "▁bén": 697,
      "▁collec": 698,
      "ari": 699,
      "alement": 700,
      "objet": 701,
      "oir": 702,
      "iss": 703,
      "▁été": 704,
      "▁l'é": 705,
      "▁bénéf": 706,
      "▁compte": 707,
      "▁date": 708,
      "▁contrô": 709,
      "▁arrê": 710,
      "▁l'ag": 711,
      "atives": 712,
      "um": 713,
      "▁membres": 714,
      "ori": 715,
      "▁prévue": 716,
      "▁montant": 717,
      "pec": 718,
      "▁l'etat": 719,
      "▁décl": 720,
      "alis": 721,
      "application": 722,
      "sign": 723,
      "▁cré": 724,
      "▁travail": 725,
      "00": 726,
      "▁leurs": 727,
      "▁inf": 728,
      "ace": 729,
      "▁fonction": 730,
      "▁partic": 731,
      "▁plus": 732,
      "▁inform": 733,
      "▁lie": 734,
      "▁eur": 735,
      "▁mentionné": 736,
      "ilité": 737,
      "oy": 738,
      "▁services": 739,
      "▁directeur": 740,
      "oci": 741,
      "ert": 742,
      "ud": 743,
      "ances": 744,
      "▁l'un": 745,
      "ve": 746,
      "érieur": 747,
      "▁décret": 748,
      "▁loc": 749,
      "▁après": 750,
      "▁mise": 751,
      "▁at": 752,
      "estion": 753,
      "▁produit": 754,
      "▁sp": 755,
      "aque": 756,
      "apit": 757,
      "ature": 758,
      "oin": 759,
      "▁chaque": 760,
      "▁elle": 761,
      "cord": 762,
      "▁déclar": 763,
      "▁d'ex": 764,
      "ception": 765,
      "mis": 766,
      "▁mes": 767,
      "▁non": 768,
      "▁cl": 769,
      "▁moins": 770,
      "▁mentionnée": 771,
      "▁éché": 772,
      "eurs": 773,
      "▁gestion": 774,
      "▁—": 775,
      "▁trois": 776,
      "es,": 777,
      "all": 778,
      "ess": 779,
      "▁éc": 780,
      "oup": 781,
      "iqu": 782,
      "▁sociale": 783,
      "▁concern": 784,
      "▁qu'il": 785,
      "▁l'établissement": 786,
      "▁sans": 787,
      "iti": 788,
      "term": 789,
      "ments": 790,
      "trib": 791,
      "bre": 792,
      "lec": 793,
      "édic": 794,
      "ven": 795,
      "ences": 796,
      "lu": 797,
      "▁not": 798,
      "util": 799,
      "enti": 800,
      "blig": 801,
      "▁car": 802,
      "▁administr": 803,
      "che": 804,
      "ric": 805,
      "tivités": 806,
      "administr": 807,
      "▁lorsqu'": 808,
      "amment": 809,
      "▁médic": 810,
      "opé": 811,
      "▁4": 812,
      "▁ren": 813,
      "▁désign": 814,
      "▁n°": 815,
      "▁lieu": 816,
      "▁préc": 817,
      "▁conform": 818,
      "▁exerc": 819,
      "▁contrôle": 820,
      "▁no": 821,
      "pô": 822,
      "▁arrêté": 823,
      "▁rempl": 824,
      "cess": 825,
      "▁opér": 826,
      "elon": 827,
      "▁cor": 828,
      "onom": 829,
      "▁établissements": 830,
      "▁territori": 831,
      "▁bi": 832,
      "prise": 833,
      "▁5": 834,
      "ats": 835,
      "ang": 836,
      "▁déterm": 837,
      "▁applicables": 838,
      "▁indi": 839,
      "tér": 840,
      "▁él": 841,
      "ploit": 842,
      "mp": 843,
      "▁notamment": 844,
      "▁compr": 845,
      "▁sal": 846,
      "iste": 847,
      "▁d'é": 848,
      "▁europé": 849,
      "els": 850,
      "▁représentant": 851,
      "▁port": 852,
      "▁d'e": 853,
      "crip": 854,
      "▁selon": 855,
      "orme": 856,
      "▁né": 857,
      "▁ph": 858,
      "uv": 859,
      "▁ten": 860,
      "ati": 861,
      "▁suivant": 862,
      "dit": 863,
      "▁mé": 864,
      "▁ob": 865,
      "▁péri": 866,
      "▁européen": 867,
      "aut": 868,
      "▁national": 869,
      "▁effec": 870,
      "▁l'objet": 871,
      "▁échéant,": 872,
      "▁rap": 873,
      "itu": 874,
      "iciaire": 875,
      "▁spé": 876,
      "▁spéci": 877,
      "▁ay": 878,
      "▁gar": 879,
      "▁partie": 880,
      "▁règlement": 881,
      "▁formation": 882,
      "▁pol": 883,
      "▁préf": 884,
      "▁établ": 885,
      "▁l'application": 886,
      "▁nécess": 887,
      "nement": 888,
      "▁nationale": 889,
      "▁réf": 890,
      "▁doit": 891,
      "val": 892,
      "▁doc": 893,
      "▁franc": 894,
      "▁nature": 895,
      "td><": 896,
      "▁liv": 897,
      "e,": 898,
      "▁dom": 899,
      "▁l'ins": 900,
      "ourn": 901,
      "▁l'e": 902,
      "-ci": 903,
      "▁201": 904,
      "ill": 905,
      "▁avis": 906,
      "ercice": 907,
      "▁conf": 908,
      "▁autres": 909,
      "ération": 910,
      "▁1°": 911,
      "▁société": 912,
      "=\"": 913,
      "▁d'ass": 914,
      "▁d'au": 915,
      "▁fixées": 916,
      "▁réserv": 917,
      "▁sus": 918,
      "▁lui": 919,
      "▁moy": 920,
      "▁docu": 921,
      "cès": 922,
      "administration": 923,
      "▁oblig": 924,
      "▁ont": 925,
      "▁dép": 926,
      "▁fond": 927,
      "▁avant": 928,
      "̧ais": 929,
      "▁respec": 930,
      "▁français": 931,
      "▁élec": 932,
      "œuv": 933,
      "/td><": 934,
      "▁parti": 935,
      "▁autre": 936,
      "▁pe": 937,
      "▁ans": 938,
      "lè": 939,
      "-1": 940,
      "tant": 941,
      "▁compter": 942,
      "▁ayant": 943,
      "ordonn": 944,
      "position": 945,
      "▁der": 946,
      "▁dern": 947,
      "▁group": 948,
      "éré": 949,
      "ense": 950,
      "iét": 951,
      "mun": 952,
      "chn": 953,
      "pond": 954,
      "▁cel": 955,
      "onnement": 956,
      "▁transport": 957,
      "▁19": 958,
      "atif": 959,
      "▁sy": 960,
      "▁y": 961,
      "▁situ": 962,
      "▁également": 963,
      "▁civ": 964,
      "▁convention": 965,
      "ign=\"": 966,
      "ille": 967,
      "▁cours": 968,
      "▁déliv": 969,
      "▁droits": 970,
      "tification": 971,
      "▁align=\"": 972,
      "tul": 973,
      "▁commer": 974,
      "if": 975,
      "ann": 976,
      "abilité": 977,
      "▁sub": 978,
      "vant": 979,
      "▁préfet": 980,
      "anci": 981,
      "▁nouv": 982,
      "ée,": 983,
      "▁techn": 984,
      "asse": 985,
      "▁référ": 986,
      "é,": 987,
      "dic": 988,
      "atr": 989,
      "▁pério": 990,
      "▁informations": 991,
      "▁publique": 992,
      "aiss": 993,
      "endant": 994,
      "lles": 995,
      "▁vis": 996,
      "gr": 997,
      "▁prest": 998,
      "▁jud": 999,
      "▁titul": 1000,
      "▁n'est": 1001,
      "▁conformément": 1002,
      "▁lim": 1003,
      "eux": 1004,
      "▁projet": 1005,
      "dif": 1006,
      "▁rép": 1007,
      "urance": 1008,
      "vi": 1009,
      "urs": 1010,
      "▁produits": 1011,
      "▁vo": 1012,
      "▁salari": 1013,
      "▁liste": 1014,
      "▁mots": 1015,
      "tifi": 1016,
      "▁min": 1017,
      "ard": 1018,
      "olog": 1019,
      "▁7": 1020,
      "▁s'il": 1021,
      "er,": 1022,
      "érieure": 1023,
      "▁procédure": 1024,
      "une": 1025,
      "à": 1026,
      "ctions": 1027,
      "▁6": 1028,
      "bles": 1029,
      "▁modif": 1030,
      "▁propr": 1031,
      "▁propriét": 1032,
      "▁sign": 1033,
      "▁rapport": 1034,
      "ble": 1035,
      "▁particip": 1036,
      "▁celui": 1037,
      "▁mots :": 1038,
      "▁chapit": 1039,
      "▁et,": 1040,
      "▁œuv": 1041,
      "▁jours": 1042,
      "ain": 1043,
      "truction": 1044,
      "ages": 1045,
      "▁relatives": 1046,
      "▁l'exercice": 1047,
      "▁cad": 1048,
      "▁résult": 1049,
      "alisation": 1050,
      "iers": 1051,
      "▁mission": 1052,
      "▁faire": 1053,
      "▁déclaration": 1054,
      "▁permet": 1055,
      "▁2°": 1056,
      "è": 1057,
      "▁stat": 1058,
      "▁nombre": 1059,
      "▁organismes": 1060,
      "▁ba": 1061,
      "pons": 1062,
      "tière": 1063,
      "▁man": 1064,
      "ossi": 1065,
      "▁livre": 1066,
      "▁ils": 1067,
      "anti": 1068,
      "▁constitu": 1069,
      "ues": 1070,
      "▁où": 1071,
      "▁cham": 1072,
      "des": 1073,
      "▁accord": 1074,
      "▁réalis": 1075,
      "▁associ": 1076,
      "prises": 1077,
      "aire,": 1078,
      "tall": 1079,
      "▁mand": 1080,
      "cul": 1081,
      "▁membre": 1082,
      "és,": 1083,
      "▁l'ense": 1084,
      "usi": 1085,
      "onc": 1086,
      "orte": 1087,
      "▁pén": 1088,
      "▁chapitre": 1089,
      "▁respons": 1090,
      "vis": 1091,
      "ante": 1092,
      "▁%": 1093,
      "cher": 1094,
      "▁celle": 1095,
      "téress": 1096,
      "▁l'agence": 1097,
      "▁d'etat": 1098,
      "▁mesures": 1099,
      "quelle": 1100,
      "amen": 1101,
      "aison": 1102,
      "▁section": 1103,
      "teurs": 1104,
      "▁l'ass": 1105,
      "▁laquelle": 1106,
      "crit": 1107,
      "▁réserve": 1108,
      "ières": 1109,
      "▁carac": 1110,
      "▁cadre": 1111,
      "gis": 1112,
      "▁plusi": 1113,
      "▁charge": 1114,
      "action": 1115,
      "▁plusieurs": 1116,
      "▁effectu": 1117,
      "▁trib": 1118,
      "▁opérations": 1119,
      "▁iii": 1120,
      "▁tribun": 1121,
      "▁précéd": 1122,
      "▁loi": 1123,
      "rog": 1124,
      "▁judiciaire": 1125,
      "▁lég": 1126,
      "▁ver": 1127,
      "▁sé": 1128,
      "▁france": 1129,
      "tère": 1130,
      "cription": 1131,
      "▁part": 1132,
      "▁comptes": 1133,
      "mploy": 1134,
      "▁professionnelle": 1135,
      "ivent": 1136,
      "▁remplac": 1137,
      "▁log": 1138,
      "ves": 1139,
      "▁l'ann": 1140,
      "▁autoris": 1141,
      "tific": 1142,
      "▁celles": 1143,
      "▁diff": 1144,
      "▁vale": 1145,
      "ellement": 1146,
      "rêt": 1147,
      "dem": 1148,
      "▁cer": 1149,
      "▁d'ap": 1150,
      "entreprise": 1151,
      "▁comité": 1152,
      "tection": 1153,
      "▁temp": 1154,
      "▁adres": 1155,
      "erg": 1156,
      "▁conn": 1157,
      "▁ris": 1158,
      "▁sais": 1159,
      "quis": 1160,
      "pel": 1161,
      "ulture": 1162,
      "▁fonds": 1163,
      "comp": 1164,
      "ffet": 1165,
      "▁délég": 1166,
      "/td><td": 1167,
      "▁œuvre": 1168,
      "▁travaux": 1169,
      "▁délib": 1170,
      "aine": 1171,
      "▁ ;\r\n": 1172,
      "▁cour": 1173,
      "▁détermin": 1174,
      "▁définies": 1175,
      "gag": 1176,
      "▁réception": 1177,
      "▁agric": 1178,
      "▁deuxième": 1179,
      "▁ou,": 1180,
      "atég": 1181,
      "▁can": 1182,
      "tive": 1183,
      "trait": 1184,
      "▁l'im": 1185,
      "oivent": 1186,
      "tribu": 1187,
      "quelles": 1188,
      "▁sol": 1189,
      "plément": 1190,
      "rer": 1191,
      "vir": 1192,
      "▁pai": 1193,
      "entr": 1194,
      "▁util": 1195,
      "ili": 1196,
      "▁plan": 1197,
      "▁équ": 1198,
      "▁entreprises": 1199,
      "mission": 1200,
      "▁fourn": 1201,
      "▁économ": 1202,
      "▁mandat": 1203,
      "vironnement": 1204,
      "▁ouv": 1205,
      "mbre": 1206,
      "organisme": 1207,
      "▁territoire": 1208,
      "▁destin": 1209,
      "▁l'av": 1210,
      "lef": 1211,
      "▁défini": 1212,
      "▁données": 1213,
      "▁ress": 1214,
      "▁cin": 1215,
      "▁jur": 1216,
      "t\"": 1217,
      "off": 1218,
      "▁align=\"lef": 1219,
      "▁align=\"left\"": 1220,
      "itaire": 1221,
      "▁ind": 1222,
      "ordre": 1223,
      "cid": 1224,
      "écution": 1225,
      "join": 1226,
      "▁pres": 1227,
      "▁publics": 1228,
      "ime": 1229,
      "demn": 1230,
      "▁protection": 1231,
      "▁pendant": 1232,
      "ension": 1233,
      "▁règles": 1234,
      "▁seu": 1235,
      "▁const": 1236,
      "endre": 1237,
      "▁agrico": 1238,
      "pôt": 1239,
      "valu": 1240,
      "▁tribunal": 1241,
      "mé": 1242,
      "▁sau": 1243,
      "▁prévus": 1244,
      "▁contre": 1245,
      "▁prop": 1246,
      "▁agents": 1247,
      "mble": 1248,
      "▁d'ins": 1249,
      "▁d'im": 1250,
      "▁matière": 1251,
      "▁électr": 1252,
      "▁recher": 1253,
      "▁pron": 1254,
      "▁activités": 1255,
      "▁l'h": 1256,
      "▁l'organisme": 1257,
      "▁moyen": 1258,
      "ls": 1259,
      "▁dét": 1260,
      "▁présente": 1261,
      "ile": 1262,
      "▁tous": 1263,
      "▁rele": 1264,
      "▁frais": 1265,
      "▁représentants": 1266,
      "▁prise": 1267,
      "uit": 1268,
      "▁financi": 1269,
      "▁“": 1270,
      "ay": 1271,
      "▁élément": 1272,
      "opération": 1273,
      "▁corres": 1274,
      "▁for": 1275,
      "▁correspond": 1276,
      "▁disposition": 1277,
      "▁réglement": 1278,
      "▁cal": 1279,
      "▁doivent": 1280,
      "▁sociétés": 1281,
      "▁paiement": 1282,
      "▁période": 1283,
      "t-": 1284,
      "▁aff": 1285,
      "did": 1286,
      "▁candid": 1287,
      "▁d'administration": 1288,
      "▁contrib": 1289,
      "eau": 1290,
      "ture": 1291,
      "▁particul": 1292,
      "abit": 1293,
      "aph": 1294,
      "▁200": 1295,
      "▁maj": 1296,
      "ateurs": 1297,
      "▁fonctions": 1298,
      "▁mêmes": 1299,
      "▁juge": 1300,
      "ond": 1301,
      "▁jour": 1302,
      "occ": 1303,
      "▁dernier": 1304,
      "ent,": 1305,
      "udg": 1306,
      "▁budg": 1307,
      "▁européenne": 1308,
      "▁qualité": 1309,
      "▁nécessaires": 1310,
      "cl": 1311,
      "▁effet": 1312,
      "ie,": 1313,
      "ach": 1314,
      "tés": 1315,
      "▁d'assurance": 1316,
      "al,": 1317,
      "ignement": 1318,
      "▁comme": 1319,
      "▁lib": 1320,
      "▁tot": 1321,
      "ire": 1322,
      "tissement": 1323,
      "ation.\r\n": 1324,
      "▁d'h": 1325,
      "tiques": 1326,
      "▁ta": 1327,
      "▁som": 1328,
      "▁utilis": 1329,
      "gistre": 1330,
      "▁”": 1331,
      "▁administrative": 1332,
      "▁supérieur": 1333,
      "enn": 1334,
      "atégor": 1335,
      "▁sens": 1336,
      "entes": 1337,
      "▁lorsqu'il": 1338,
      "térieur": 1339,
      "dec": 1340,
      "ons": 1341,
      "ique,": 1342,
      "▁d'ét": 1343,
      "▁met": 1344,
      "▁.": 1345,
      "▁l'entreprise": 1346,
      "▁pris": 1347,
      "▁fam": 1348,
      "▁valeur": 1349,
      "▁li": 1350,
      "▁compt": 1351,
      "ist": 1352,
      "sence": 1353,
      "▁activité": 1354,
      "up": 1355,
      "▁déb": 1356,
      "aissance": 1357,
      "alable": 1358,
      "pôts": 1359,
      "▁dossi": 1360,
      "▁catégor": 1361,
      "▁8": 1362,
      "tribution": 1363,
      "▁siè": 1364,
      "▁financ": 1365,
      "rés": 1366,
      "▁taux": 1367,
      "ale,": 1368,
      "raph": 1369,
      "▁mal": 1370,
      "▁vers": 1371,
      "olution": 1372,
      "agn": 1373,
      "▁l'union": 1374,
      "▁documents": 1375,
      "▁fac": 1376,
      "▁ceux": 1377,
      "▁annu": 1378,
      "▁éléments": 1379,
      "▁exp": 1380,
      "test": 1381,
      "▁elles": 1382,
      "▁off": 1383,
      "▁défaut": 1384,
      "▁mor": 1385,
      "fois": 1386,
      "atifs": 1387,
      "▁constat": 1388,
      "▁crédit": 1389,
      "ées,": 1390,
      "▁obligations": 1391,
      "mbl": 1392,
      "▁collectivités": 1393,
      "mploi": 1394,
      "▁dou": 1395,
      "▁toutefois": 1396,
      "▁mil": 1397,
      "▁professionnel": 1398,
      "▁phy": 1399,
      "serv": 1400,
      "arm": 1401,
      "▁tax": 1402,
      "▁médec": 1403,
      "quê": 1404,
      "▁électron": 1405,
      "▁z": 1406,
      "▁affec": 1407,
      "▁d'en": 1408,
      "▁calcul": 1409,
      "mise": 1410,
      "▁suivantes": 1411,
      "▁mesure": 1412,
      "▁communes": 1413,
      "cip": 1414,
      "▁agré": 1415,
      "▁l'ensemble": 1416,
      "▁che": 1417,
      "▁transf": 1418,
      "▁consult": 1419,
      "▁vi": 1420,
      "▁défense": 1421,
      "-d": 1422,
      "▁priv": 1423,
      "▁l'autorisation": 1424,
      "xim": 1425,
      "▁place": 1426,
      "▁retrait": 1427,
      "▁référence": 1428,
      "▁pos": 1429,
      "oires": 1430,
      "près": 1431,
      "aî": 1432,
      "▁conserv": 1433,
      "▁chac": 1434,
      "▁install": 1435,
      "▁personnel": 1436,
      "▁demand": 1437,
      "▁auprès": 1438,
      "▁attribu": 1439,
      "▁3°": 1440,
      "clu": 1441,
      "▁l'année": 1442,
      "ulation": 1443,
      "▁mat": 1444,
      "▁soumis": 1445,
      "▁prononc": 1446,
      "ze": 1447,
      "ications": 1448,
      "▁pouv": 1449,
      "aisse": 1450,
      "▁régime": 1451,
      "▁sauf": 1452,
      "▁fixé": 1453,
      "▁biens": 1454,
      "▁dépens": 1455,
      "▁march": 1456,
      "▁trait": 1457,
      "▁actions": 1458,
      "▁cau": 1459,
      "organisation": 1460,
      "▁réun": 1461,
      "▁vé": 1462,
      "▁respect": 1463,
      "omm": 1464,
      "▁avoir": 1465,
      "urer": 1466,
      "icu": 1467,
      "▁zon": 1468,
      "▁bénéfici": 1469,
      "▁conjoin": 1470,
      "tè": 1471,
      "▁s'appl": 1472,
      "▁cir": 1473,
      "▁vue": 1474,
      "▁rémun": 1475,
      "▁compétente": 1476,
      "▁relevant": 1477,
      "tr><": 1478,
      "▁l'a": 1479,
      "▁portant": 1480,
      "▁véh": 1481,
      "prim": 1482,
      "entions": 1483,
      "incip": 1484,
      "▁véhicu": 1485,
      "▁princip": 1486,
      "▁san": 1487,
      "énag": 1488,
      "▁physi": 1489,
      "▁capit": 1490,
      "é.\r\n": 1491,
      "▁recherche": 1492,
      "▁renouv": 1493,
      "▁us": 1494,
      "▁l'exp": 1495,
      "rêts": 1496,
      "▁titulaire": 1497,
      "▁dossier": 1498,
      "▁commerce": 1499,
      "ploitation": 1500,
      "isc": 1501,
      "▁caisse": 1502,
      "▁fonctionnement": 1503,
      "▁9": 1504,
      "▁etat": 1505,
      "umér": 1506,
      "▁as": 1507,
      "▁condu": 1508,
      "esp": 1509,
      "▁dépenses": 1510,
      "atoire": 1511,
      "▁mis": 1512,
      "▁prestations": 1513,
      "parti": 1514,
      "▁applicable": 1515,
      "▁complément": 1516,
      "▁l'environnement": 1517,
      "▁titres": 1518,
      "tionn": 1519,
      "aille": 1520,
      "▁budget": 1521,
      "▁rése": 1522,
      "pose": 1523,
      "-c": 1524,
      "▁toutes": 1525,
      "tique": 1526,
      "▁1er": 1527,
      "▁rece": 1528,
      "▁10": 1529,
      "▁nouvelle": 1530,
      "▁voie": 1531,
      "ver": 1532,
      "▁chargés": 1533,
      "▁cotis": 1534,
      "▁tiers": 1535,
      "es.\r\n": 1536,
      "▁numér": 1537,
      "formation": 1538,
      "▁cas,": 1539,
      "▁am": 1540,
      "th": 1541,
      "▁six": 1542,
      "▁gu": 1543,
      "ée.\r\n": 1544,
      "▁marché": 1545,
      "▁cinq": 1546,
      "▁susp": 1547,
      "veill": 1548,
      "▁chambre": 1549,
      "▁collectivité": 1550,
      "▁régional": 1551,
      "él": 1552,
      "▁police": 1553,
      "▁lesquelles": 1554,
      "▁préalable": 1555,
      "▁certific": 1556,
      "▁sys": 1557,
      "000": 1558,
      "tenu": 1559,
      "ites": 1560,
      "▁civile": 1561,
      "▁commune": 1562,
      "▁document": 1563,
      "▁assu": 1564,
      "▁appr": 1565,
      "▁dérog": 1566,
      "▁outre": 1567,
      "..": 1568,
      "▁situation": 1569,
      "▁celui-ci": 1570,
      "▁progr": 1571,
      "ocation": 1572,
      "▁program": 1573,
      "▁inté": 1574,
      "mployeur": 1575,
      "duction": 1576,
      "▁syn": 1577,
      "▁toutefois,": 1578,
      "▁quat": 1579,
      "valuation": 1580,
      "▁piè": 1581,
      "▁consomm": 1582,
      "▁siège": 1583,
      "▁engag": 1584,
      "▁maxim": 1585,
      "▁relative": 1586,
      "▁sous-": 1587,
      "▁l'ap": 1588,
      "▁production": 1589,
      "trang": 1590,
      "cè": 1591,
      "▁dév": 1592,
      "▁val": 1593,
      "▁000": 1594,
      "▁pay": 1595,
      "▁d'a": 1596,
      "▁fixe": 1597,
      "uis": 1598,
      "▁adress": 1599,
      "▁intéress": 1600,
      "▁économique": 1601,
      "és.\r\n": 1602,
      "mblée": 1603,
      "▁civil": 1604,
      "▁territoriales": 1605,
      "▁précise": 1606,
      "▁permettant": 1607,
      "▁d'application": 1608,
      "▁exig": 1609,
      "▁l'ordre": 1610,
      "▁niv": 1611,
      "▁sain": 1612,
      "▁républ": 1613,
      "▁surveill": 1614,
      "▁l'activité": 1615,
      "▁délégu": 1616,
      "▁coopération": 1617,
      "fr": 1618,
      "adi": 1619,
      "▁ci": 1620,
      "ém": 1621,
      "▁recours": 1622,
      "▁intern": 1623,
      "cepti": 1624,
      "-m": 1625,
      "▁objet": 1626,
      "▁garanti": 1627,
      "▁vol": 1628,
      "▁systè": 1629,
      "te,": 1630,
      "▁sein": 1631,
      "▁saint-": 1632,
      "▁commerci": 1633,
      "cue": 1634,
      "▁raison": 1635,
      "▁nav": 1636,
      "▁suscepti": 1637,
      "▁troisième": 1638,
      "▁tenu": 1639,
      "tation": 1640,
      "▁reven": 1641,
      "vidu": 1642,
      "aide": 1643,
      "mises": 1644,
      "▁parties": 1645,
      "quisi": 1646,
      "hér": 1647,
      "abil": 1648,
      "idic": 1649,
      "▁align=\"left\"><": 1650,
      "▁juridic": 1651,
      "jec": 1652,
      "itaires": 1653,
      "urant": 1654,
      "▁statu": 1655,
      "▁13": 1656,
      "▁l'al": 1657,
      "▁prix": 1658,
      "ancement": 1659,
      "uni": 1660,
      "▁risques": 1661,
      "opp": 1662,
      "▁l'ad": 1663,
      "▁impôts": 1664,
      "▁précis": 1665,
      "elopp": 1666,
      "jud": 1667,
      "▁caractère": 1668,
      "▁individu": 1669,
      "▁notification": 1670,
      "ataire": 1671,
      "▁n'a": 1672,
      "▁première": 1673,
      "▁compris": 1674,
      "▁suivantes :\r\n": 1675,
      "▁surveillance": 1676,
      "▁proc": 1677,
      "▁inscrit": 1678,
      "por": 1679,
      "vier": 1680,
      "gé": 1681,
      "▁qual": 1682,
      "▁limite": 1683,
      "aître": 1684,
      "▁salariés": 1685,
      "▁conclu": 1686,
      "ép": 1687,
      "▁l'off": 1688,
      "▁jan": 1689,
      "▁social": 1690,
      "▁janvier": 1691,
      "▁chef": 1692,
      "tien": 1693,
      "▁fisc": 1694,
      "▁jusqu'": 1695,
      "▁base": 1696,
      "▁iv": 1697,
      "truc": 1698,
      "▁consid": 1699,
      "inistres": 1700,
      "vestissement": 1701,
      "▁déce": 1702,
      "▁réalisation": 1703,
      "▁forme": 1704,
      "oix": 1705,
      "ureur": 1706,
      "▁minim": 1707,
      "▁peut,": 1708,
      "▁missions": 1709,
      "né": 1710,
      "▁agricole": 1711,
      "▁décembre": 1712,
      "▁logement": 1713,
      "▁temps": 1714,
      "▁l'asse": 1715,
      "▁soins": 1716,
      "▁malad": 1717,
      "▁ni": 1718,
      "▁médica": 1719,
      "opr": 1720,
      "quels": 1721,
      "▁différ": 1722,
      "▁imm": 1723,
      "▁institu": 1724,
      "▁qualif": 1725,
      "▁actes": 1726,
      "▁l'accord": 1727,
      "▁régionale": 1728,
      "▁infr": 1729,
      "▁générale": 1730,
      "▁fonctionn": 1731,
      "▁techniques": 1732,
      "ennent": 1733,
      "vement": 1734,
      "▁bis": 1735,
      "▁française": 1736,
      "▁ier": 1737,
      "▁ab": 1738,
      "énerg": 1739,
      "▁15": 1740,
      "▁équip": 1741,
      "▁por": 1742,
      "▁décisions": 1743,
      "▁contribu": 1744,
      "▁bes": 1745,
      "▁ministres": 1746,
      "▁départemental": 1747,
      "▁jug": 1748,
      "riculture": 1749,
      "▁subs": 1750,
      "▁vente": 1751,
      "tein": 1752,
      "▁ref": 1753,
      "▁niveau": 1754,
      "▁vie": 1755,
      "▁202": 1756,
      "▁gre": 1757,
      "▁liqu": 1758,
      "▁én": 1759,
      "▁main": 1760,
      "▁l'administration": 1761,
      "▁remb": 1762,
      "▁ser": 1763,
      "bilité": 1764,
      "▁cop": 1765,
      "▁fig": 1766,
      "ustr": 1767,
      "ination": 1768,
      "▁l'assemblée": 1769,
      "▁versement": 1770,
      "▁locaux": 1771,
      "aines": 1772,
      "▁d'av": 1773,
      "▁pièces": 1774,
      "▁prises": 1775,
      "érations": 1776,
      "▁cert": 1777,
      "commun": 1778,
      "▁construction": 1779,
      "esti": 1780,
      "▁auc": 1781,
      "rément": 1782,
      "▁écrit": 1783,
      "uc": 1784,
      "▁centre": 1785,
      "</td><td": 1786,
      "▁gestionn": 1787,
      "▁exéc": 1788,
      "̀res": 1789,
      "▁commiss": 1790,
      "▁désigné": 1791,
      "ich": 1792,
      "sions": 1793,
      "▁collèg": 1794,
      "quête": 1795,
      "▁informe": 1796,
      "▁intercommun": 1797,
      "▁compétences": 1798,
      "tro": 1799,
      "▁devant": 1800,
      "mpr": 1801,
      "▁table": 1802,
      "▁suivants": 1803,
      "▁contrats": 1804,
      "▁république": 1805,
      "ié": 1806,
      "▁mariti": 1807,
      "▁syndic": 1808,
      "médi": 1809,
      "ra": 1810,
      "▁moyens": 1811,
      "ograph": 1812,
      "▁dès": 1813,
      "▁indemn": 1814,
      "▁appar": 1815,
      "▁mu": 1816,
      "orig": 1817,
      "▁titulaires": 1818,
      "▁année": 1819,
      "oration": 1820,
      "icie": 1821,
      "▁dix": 1822,
      "▁demandeur": 1823,
      "tenir": 1824,
      "▁d'am": 1825,
      "▁garan": 1826,
      "▁accomp": 1827,
      "▁op": 1828,
      "▁celle-ci": 1829,
      "▁mutu": 1830,
      "▁pension": 1831,
      "onomie": 1832,
      "érif": 1833,
      "atique": 1834,
      "oû": 1835,
      "▁vérif": 1836,
      "tance": 1837,
      "icier": 1838,
      "apac": 1839,
      "▁l'employeur": 1840,
      "▁financement": 1841,
      "▁reç": 1842,
      "▁comprend": 1843,
      "cipl": 1844,
      "▁l'exécution": 1845,
      "▁publiques": 1846,
      "▁développ": 1847,
      "urg": 1848,
      "▁correspondant": 1849,
      "▁autorités": 1850,
      "▁quin": 1851,
      "éduc": 1852,
      "ité,": 1853,
      "absence": 1854,
      "▁liquid": 1855,
      "utilisation": 1856,
      "▁ordonn": 1857,
      "▁traitement": 1858,
      "énagement": 1859,
      "isme": 1860,
      "urb": 1861,
      "▁sommes": 1862,
      "pro": 1863,
      "▁pharm": 1864,
      "amende": 1865,
      "ange": 1866,
      "▁transmet": 1867,
      "obil": 1868,
      "▁résultant": 1869,
      "▁ouvr": 1870,
      "▁l'une": 1871,
      "▁l'éc": 1872,
      "▁greff": 1873,
      "▁résolution": 1874,
      "-2": 1875,
      "▁qu'ils": 1876,
      "▁relatif": 1877,
      "cent": 1878,
      "aux,": 1879,
      "vision": 1880,
      "▁cause": 1881,
      "▁pass": 1882,
      "ouvert": 1883,
      "ines": 1884,
      "tances": 1885,
      "▁l'exception": 1886,
      "▁communiqu": 1887,
      "▁capital": 1888,
      "issant": 1889,
      "rées": 1890,
      "▁fois": 1891,
      "fin": 1892,
      "▁poin": 1893,
      "cien": 1894,
      "▁taxe": 1895,
      "ources": 1896,
      "▁interven": 1897,
      "iration": 1898,
      "ouver": 1899,
      "▁tableau": 1900,
      "aire.\r\n": 1901,
      "térêt": 1902,
      "▁copie": 1903,
      "compl": 1904,
      "▁autorisation": 1905,
      "▁4°": 1906,
      "̧ant": 1907,
      "aires,": 1908,
      "▁domaine": 1909,
      "▁concernant": 1910,
      "▁installations": 1911,
      "▁fixée": 1912,
      "▁justic": 1913,
      "tives": 1914,
      "▁établi": 1915,
      "▁concerne": 1916,
      "▁d'établissement": 1917,
      "▁territoriale": 1918,
      "▁alinéas": 1919,
      "▁observ": 1920,
      "▁modification": 1921,
      "▁groupement": 1922,
      "▁bâ": 1923,
      "▁reconn": 1924,
      "ustrie": 1925,
      "▁qu'elle": 1926,
      "cède": 1927,
      "▁l'avis": 1928,
      "▁proposition": 1929,
      "▁dépos": 1930,
      "▁rou": 1931,
      "▁remplacés": 1932,
      "att": 1933,
      "mand": 1934,
      "▁égal": 1935,
      "quisition": 1936,
      "ing": 1937,
      "▁désignés": 1938,
      "ées.\r\n": 1939,
      "▁procureur": 1940,
      "▁rede": 1941,
      "▁rémunération": 1942,
      "▁let": 1943,
      "térieure": 1944,
      "▁ent": 1945,
      "▁peine": 1946,
      "▁motiv": 1947,
      "énergie": 1948,
      "▁médecin": 1949,
      "illes": 1950,
      "fait": 1951,
      "▁préjud": 1952,
      "actions": 1953,
      "▁compétence": 1954,
      "▁excéd": 1955,
      "▁conjoint": 1956,
      "▁plac": 1957,
      "▁bénéficiaire": 1958,
      "▁spécif": 1959,
      "▁adap": 1960,
      "▁recom": 1961,
      "▁refus": 1962,
      "▁redev": 1963,
      "▁pouvoir": 1964,
      "ventu": 1965,
      "▁garantie": 1966,
      "▁accompagn": 1967,
      "▁définis": 1968,
      "▁font": 1969,
      "▁étu": 1970,
      "▁financiers": 1971,
      "▁dérogation": 1972,
      "▁charges": 1973,
      "▁réseau": 1974,
      "/2": 1975,
      "▁recommand": 1976,
      "▁l'intéress": 1977,
      "▁quatre": 1978,
      "▁cond": 1979,
      "▁relè": 1980,
      "▁recouv": 1981,
      "▁matérie": 1982,
      "▁annex": 1983,
      "mi": 1984,
      "▁direction": 1985,
      "▁condition": 1986,
      "▁régul": 1987,
      "occup": 1988,
      "▁réunion": 1989,
      "▁responsable": 1990,
      "▁professionnels": 1991,
      "▁ministère": 1992,
      "▁technique": 1993,
      "▁condam": 1994,
      "ivers": 1995,
      "▁afin": 1996,
      "nom": 1997,
      "▁développement": 1998,
      "érés": 1999,
      "▁personnels": 2000,
      "▁br": 2001,
      "▁porte": 2002,
      "▁dipl": 2003,
      "▁indiqu": 2004,
      "▁groupe": 2005,
      "▁d'ag": 2006,
      "erce": 2007,
      "▁électronique": 2008,
      "pit": 2009,
      "tivement": 2010,
      "▁contin": 2011,
      "▁l'agriculture": 2012,
      "▁caractér": 2013,
      "entiel": 2014,
      "rement": 2015,
      "▁notifi": 2016,
      "▁entreprise": 2017,
      "▁juridiction": 2018,
      "▁align=\"left\"></td><td": 2019,
      "tric": 2020,
      "▁dépôt": 2021,
      "▁cotisations": 2022,
      "▁pours": 2023,
      "▁attein": 2024,
      "▁état": 2025,
      "▁organisme": 2026,
      "▁procéder": 2027,
      "ong": 2028,
      "▁exploit": 2029,
      "▁délais": 2030,
      "▁maladie": 2031,
      "▁certificat": 2032,
      "▁prévention": 2033,
      "▁lettre": 2034,
      "seign": 2035,
      "▁22": 2036,
      "▁caractéris": 2037,
      "▁chacun": 2038,
      "▁euros": 2039,
      "▁jusqu'à": 2040,
      "▁d'activité": 2041,
      "ll": 2042,
      "▁communication": 2043,
      "▁discipl": 2044,
      "▁l'expiration": 2045,
      "▁rest": 2046,
      "ouverture": 2047,
      "eures": 2048,
      "▁d'ar": 2049,
      "vention": 2050,
      "▁éventu": 2051,
      "▁préjudice": 2052,
      "▁résid": 2053,
      "▁30": 2054,
      "▁l'état": 2055,
      "ient": 2056,
      "▁directement": 2057,
      "▁rend": 2058,
      "▁responsabilité": 2059,
      "ue)": 2060,
      "▁anim": 2061,
      "ueur": 2062,
      "▁registre": 2063,
      "▁système": 2064,
      "▁comptable": 2065,
      "▁pê": 2066,
      "▁(ue)": 2067,
      "▁radi": 2068,
      "▁ressources": 2069,
      "orient": 2070,
      "▁intercommunale": 2071,
      "▁zone": 2072,
      "inaire": 2073,
      "▁distribution": 2074,
      "ociation": 2075,
      "▁propriétaire": 2076,
      "▁bâti": 2077,
      "rec": 2078,
      "▁compos": 2079,
      "age,": 2080,
      "▁parlement": 2081,
      "ttes": 2082,
      "▁circ": 2083,
      "▁diplô": 2084,
      "▁lequel": 2085,
      "tent": 2086,
      "tenant": 2087,
      "▁professionnelles": 2088,
      "▁connaissance": 2089,
      "▁procès": 2090,
      "▁appel": 2091,
      "resse": 2092,
      "▁cession": 2093,
      "▁immobil": 2094,
      "▁tard": 2095,
      "registre": 2096,
      "▁–": 2097,
      "▁requ": 2098,
      "verb": 2099,
      "sie": 2100,
      "iment": 2101,
      "sif": 2102,
      "▁vig": 2103,
      "▁cr": 2104,
      "origine": 2105,
      "rance": 2106,
      "arif": 2107,
      "▁tempor": 2108,
      "▁mettre": 2109,
      "▁moment": 2110,
      "▁article.\r\n": 2111,
      "▁participation": 2112,
      "▁d'ense": 2113,
      "▁entr": 2114,
      "▁précédent": 2115,
      "▁s'appliqu": 2116,
      "▁l'action": 2117,
      "▁l'organisation": 2118,
      "▁enc": 2119,
      "▁compétent": 2120,
      "▁observations": 2121,
      "yp": 2122,
      "▁article,": 2123,
      "▁id": 2124,
      "▁prendre": 2125,
      "▁tarif": 2126,
      "▁attest": 2127,
      "▁hors": 2128,
      "▁puni": 2129,
      "▁débit": 2130,
      "aisant": 2131,
      "▁fav": 2132,
      "▁initi": 2133,
      "▁comporte": 2134,
      "▁dispositif": 2135,
      "▁fab": 2136,
      "▁procès-": 2137,
      "tée": 2138,
      "▁procès-verb": 2139,
      "▁justifi": 2140,
      "▁bien": 2141,
      "▁acqu": 2142,
      "▁déch": 2143,
      "▁d'appel": 2144,
      "quip": 2145,
      "iden": 2146,
      "▁candidat": 2147,
      "▁recue": 2148,
      "▁prend": 2149,
      "▁€": 2150,
      "▁mun": 2151,
      "▁perman": 2152,
      "▁collège": 2153,
      "▁sc": 2154,
      "ma": 2155,
      "ides": 2156,
      "bil": 2157,
      "▁catégorie": 2158,
      "▁l'inter": 2159,
      "s.\r\n": 2160,
      "▁détermine": 2161,
      "cueil": 2162,
      "▁risque": 2163,
      "▁bénéfice": 2164,
      "▁l'aide": 2165,
      "▁travaille": 2166,
      "▁d'autres": 2167,
      "▁d'autor": 2168,
      "ches": 2169,
      "tranger": 2170,
      "▁rembour": 2171,
      "▁quinze": 2172,
      "▁objec": 2173,
      "▁enf": 2174,
      "▁vic": 2175,
      "occa": 2176,
      "illet": 2177,
      "oins": 2178,
      "▁dispose": 2179,
      "▁victi": 2180,
      "inéa": 2181,
      "-dess": 2182,
      "▁parts": 2183,
      "▁spor": 2184,
      "▁l'at": 2185,
      "▁31": 2186,
      "▁journ": 2187,
      "▁usage": 2188,
      "rêté": 2189,
      "omp": 2190,
      "▁terme": 2191,
      "icile": 2192,
      "▁l'institu": 2193,
      "▁sim": 2194,
      "▁tant": 2195,
      "ouvr": 2196,
      "criptions": 2197,
      "oblig": 2198,
      "▁famili": 2199,
      "▁circons": 2200,
      "▁supérieure": 2201,
      "▁dém": 2202,
      "éducation": 2203,
      "▁deme": 2204,
      "▁catégories": 2205,
      "▁demandes": 2206,
      "erç": 2207,
      "▁réc": 2208,
      "▁égale": 2209,
      "▁all": 2210,
      "▁domicile": 2211,
      "▁l'exploit": 2212,
      "imes": 2213,
      "▁répond": 2214,
      "▁vigueur": 2215,
      "▁gestionnaire": 2216,
      "▁fins": 2217,
      "▁demander": 2218,
      "▁total": 2219,
      "▁l'alinéa": 2220,
      "▁l'absence": 2221,
      "▁remboursement": 2222,
      "▁références": 2223,
      "▁propos": 2224,
      "▁transmission": 2225,
      "▁renouvel": 2226,
      "▁nég": 2227,
      "▁délivrance": 2228,
      "▁d'investissement": 2229,
      "▁commissaire": 2230,
      "tue": 2231,
      "iter": 2232,
      "▁valid": 2233,
      "mè": 2234,
      "▁transfert": 2235,
      "▁financier": 2236,
      "▁poly": 2237,
      "▁16": 2238,
      "iée": 2239,
      "o-": 2240,
      "▁mag": 2241,
      "▁financière": 2242,
      "▁sociales": 2243,
      "▁procédures": 2244,
      "▁manière": 2245,
      "▁logements": 2246,
      "▁juillet": 2247,
      "▁satis": 2248,
      "aly": 2249,
      "▁propriété": 2250,
      "▁coû": 2251,
      "▁suivi": 2252,
      "▁paris": 2253,
      "▁conseill": 2254,
      "▁mode": 2255,
      "al.\r\n": 2256,
      "préci": 2257,
      "▁comport": 2258,
      "tifie": 2259,
      "▁supprim": 2260,
      "▁disp": 2261,
      "▁s'ag": 2262,
      "▁major": 2263,
      "après": 2264,
      "▁caractéristiques": 2265,
      "af": 2266,
      "ival": 2267,
      "▁excéder": 2268,
      "▁quel": 2269,
      "▁hand": 2270,
      "re,": 2271,
      "▁marchés": 2272,
      "icap": 2273,
      "▁réparti": 2274,
      "▁internation": 2275,
      "▁handicap": 2276,
      "▁second": 2277,
      "▁l'arrêté": 2278,
      "ospit": 2279,
      "apacité": 2280,
      "▁salarié": 2281,
      "▁aut": 2282,
      "voir": 2283,
      "▁ga": 2284,
      "icip": 2285,
      "▁municip": 2286,
      "▁programme": 2287,
      "▁véhicule": 2288,
      "onne": 2289,
      "▁faisant": 2290,
      "▁médicale": 2291,
      "tées": 2292,
      "meubl": 2293,
      "▁organisations": 2294,
      "▁agricoles": 2295,
      "▁suppl": 2296,
      "▁douan": 2297,
      "▁s'appliquent": 2298,
      "▁maritime": 2299,
      "isl": 2300,
      "▁résultats": 2301,
      "▁impos": 2302,
      "▁éch": 2303,
      "▁12": 2304,
      "-3": 2305,
      "▁ressort": 2306,
      "▁candidats": 2307,
      "▁centr": 2308,
      "▁ci-dess": 2309,
      "▁vote": 2310,
      "▁typ": 2311,
      "▁physique": 2312,
      "▁législ": 2313,
      "acement": 2314,
      "▁sû": 2315,
      "▁sep": 2316,
      "▁déten": 2317,
      "▁code,": 2318,
      "▁adresse": 2319,
      "▁prud": 2320,
      "▁présenter": 2321,
      "▁supplé": 2322,
      "▁statut": 2323,
      "/tr><": 2324,
      "▁l'habit": 2325,
      "tropo": 2326,
      "▁site": 2327,
      "▁11": 2328,
      "▁médicament": 2329,
      "▁perç": 2330,
      "▁inférieur": 2331,
      "▁d'enseignement": 2332,
      "▁morale": 2333,
      "▁justice": 2334,
      "-cal": 2335,
      "▁class": 2336,
      "/tr><tr><": 2337,
      "▁véhicules": 2338,
      "issue": 2339,
      "▁norm": 2340,
      "identi": 2341,
      "▁politi": 2342,
      "édon": 2343,
      "▁polyné": 2344,
      "▁duquel": 2345,
      "▁métropo": 2346,
      "▁culture": 2347,
      "▁solid": 2348,
      "▁d'ad": 2349,
      "▁exclu": 2350,
      "▁ciné": 2351,
      "▁l'ordonn": 2352,
      "▁pêche": 2353,
      "▁physiques": 2354,
      "▁d'off": 2355,
      "▁jugement": 2356,
      "-calédon": 2357,
      "▁polynésie": 2358,
      "▁fer": 2359,
      "▁immédi": 2360,
      "▁nouvelle-calédon": 2361,
      "▁prati": 2362,
      "\">": 2363,
      "ence,": 2364,
      "▁retraite": 2365,
      "▁statuts": 2366,
      "▁remise": 2367,
      "▁profession": 2368,
      "▁conventions": 2369,
      "iées": 2370,
      "▁code.\r\n": 2371,
      "▁relatifs": 2372,
      "registrement": 2373,
      "▁l'oblig": 2374,
      "▁suspension": 2375,
      "▁départements": 2376,
      "espace": 2377,
      "▁prépar": 2378,
      "ets": 2379,
      "▁l'intéressé": 2380,
      "ffis": 2381,
      "▁l'agrément": 2382,
      "▁align=\"left\">": 2383,
      "ole": 2384,
      "lev": 2385,
      "/td></tr><tr><": 2386,
      "▁santé,": 2387,
      "ps": 2388,
      "adém": 2389,
      "▁heures": 2390,
      "▁patr": 2391,
      "iation": 2392,
      "▁possi": 2393,
      "▁condamn": 2394,
      "▁permis": 2395,
      "itation": 2396,
      "▁l'enseignement": 2397,
      "▁l'énergie": 2398,
      "▁exercer": 2399,
      "istr": 2400,
      "usion": 2401,
      "▁magistr": 2402,
      "iques,": 2403,
      "▁annuel": 2404,
      "▁séj": 2405,
      "▁d'inter": 2406,
      "ologie": 2407,
      "▁équival": 2408,
      "▁unique": 2409,
      "▁po": 2410,
      "▁susceptibles": 2411,
      "irm": 2412,
      "cteur": 2413,
      "aient": 2414,
      "▁parmi": 2415,
      "▁ép": 2416,
      "are": 2417,
      "▁décid": 2418,
      "▁ving": 2419,
      "anisme": 2420,
      "▁fixés": 2421,
      "▁associations": 2422,
      "▁d'intérêt": 2423,
      "▁recettes": 2424,
      "dement": 2425,
      "▁mon": 2426,
      "▁ple": 2427,
      "▁finances": 2428,
      "▁vertu": 2429,
      "▁assurer": 2430,
      "▁numéro": 2431,
      "ales,": 2432,
      "tac": 2433,
      "tifier": 2434,
      "▁définie": 2435,
      "▁publication": 2436,
      "urr": 2437,
      "▁autorité": 2438,
      "▁dot": 2439,
      "atoires": 2440,
      "▁concl": 2441,
      "▁infractions": 2442,
      "yot": 2443,
      "▁exerçant": 2444,
      "▁opération": 2445,
      "▁bénéficier": 2446,
      "▁mayot": 2447,
      "▁d'aménagement": 2448,
      "ants,": 2449,
      "▁d'information": 2450,
      "lection": 2451,
      "▁assur": 2452,
      "▁l'office": 2453,
      "érer": 2454,
      "erts": 2455,
      "diction": 2456,
      "gard": 2457,
      "arité": 2458,
      "▁marchand": 2459,
      "▁l'obligation": 2460,
      "és ;\r\n": 2461,
      "érée": 2462,
      "▁d'autorisation": 2463,
      "tention": 2464,
      "▁align=\"cent": 2465,
      "▁align=\"center": 2466,
      "▁l'emploi": 2467,
      "▁peines": 2468,
      "▁conces": 2469,
      "▁struc": 2470,
      "▁qu'à": 2471,
      "▁d'être": 2472,
      "▁tél": 2473,
      "▁réd": 2474,
      "▁w": 2475,
      "▁demande,": 2476,
      "ères": 2477,
      "▁faite": 2478,
      "▁administratif": 2479,
      "▁scien": 2480,
      "▁5°": 2481,
      "▁scientif": 2482,
      "▁part,": 2483,
      "ère": 2484,
      "▁partir": 2485,
      "▁transports": 2486,
      "▁exerce": 2487,
      "▁l'etat,": 2488,
      "▁regard": 2489,
      "▁alinéa,": 2490,
      "▁d'exploitation": 2491,
      "▁prélè": 2492,
      "meubles": 2493,
      "▁l'intérieur": 2494,
      "ibles": 2495,
      "/td></tr><tr><td": 2496,
      "reté": 2497,
      "▁lieux": 2498,
      "▁maire": 2499,
      "▁voix": 2500,
      "▁chacune": 2501,
      "▁volont": 2502,
      "▁rédu": 2503,
      "▁support": 2504,
      "▁év": 2505,
      "atrième": 2506,
      "tures": 2507,
      "▁d'etat.\r\n": 2508,
      "▁contrac": 2509,
      "▁industrie": 2510,
      "▁rédaction": 2511,
      "▁renouvellement": 2512,
      "▁lesquels": 2513,
      "▁poursu": 2514,
      "▁quatrième": 2515,
      "▁l'issue": 2516,
      "abilités": 2517,
      "▁sanction": 2518,
      "édi": 2519,
      "▁affér": 2520,
      "▁conseils": 2521,
      "▁concurr": 2522,
      "▁besoins": 2523,
      "▁haut": 2524,
      "▁l'ind": 2525,
      "▁supplément": 2526,
      "▁199": 2527,
      "▁audi": 2528,
      "ute": 2529,
      "▁travail,": 2530,
      "▁local": 2531,
      "▁l'indemn": 2532,
      "▁années": 2533,
      "▁l'exploitant": 2534,
      "▁consultation": 2535,
      "▁employ": 2536,
      "ance,": 2537,
      "▁arm": 2538,
      "▁reten": 2539,
      "enant": 2540,
      "identification": 2541,
      "▁nouveau": 2542,
      "ataires": 2543,
      "▁particulier": 2544,
      "imin": 2545,
      "▁objectifs": 2546,
      "▁demeure": 2547,
      "▁forfait": 2548,
      "▁délivré": 2549,
      "▁création": 2550,
      "▁patrim": 2551,
      "▁détention": 2552,
      "▁délibération": 2553,
      "▁crit": 2554,
      "ade": 2555,
      "▁séjour": 2556,
      "▁uti": 2557,
      "▁féd": 2558,
      "se,": 2559,
      "▁s'applique": 2560,
      "vient": 2561,
      "▁recouvrement": 2562,
      "ern": 2563,
      "▁gaz": 2564,
      "clusion": 2565,
      "érant": 2566,
      "▁sûreté": 2567,
      "équ": 2568,
      "▁mobil": 2569,
      "▁exécut": 2570,
      "▁fournis": 2571,
      "▁chang": 2572,
      "▁carte": 2573,
      "oyer": 2574,
      "▁figurant": 2575,
      "▁ca": 2576,
      "▁temporaire": 2577,
      "▁obligatoire": 2578,
      "bres": 2579,
      "▁indirec": 2580,
      "▁assure": 2581,
      "▁circul": 2582,
      "ende": 2583,
      "▁l'espace": 2584,
      "▁défaut,": 2585,
      "▁cinqu": 2586,
      "uve": 2587,
      "assement": 2588,
      "▁procédé": 2589,
      "▁équipements": 2590,
      "▁rendu": 2591,
      "▁l'enf": 2592,
      "oqu": 2593,
      "urbanisme": 2594,
      "orti": 2595,
      "▁nécessaire": 2596,
      "▁plein": 2597,
      "▁qui,": 2598,
      "01": 2599,
      "▁périmè": 2600,
      "▁militaires": 2601,
      "▁militaire": 2602,
      "▁fournit": 2603,
      "▁ci-dessus": 2604,
      "▁rur": 2605,
      "▁comb": 2606,
      "érées": 2607,
      "▁décès": 2608,
      "▁bure": 2609,
      "▁envis": 2610,
      "tières": 2611,
      "▁territorial": 2612,
      "istes": 2613,
      "itenti": 2614,
      "▁pénitenti": 2615,
      "rét": 2616,
      "▁diplôme": 2617,
      "iés": 2618,
      "▁réduction": 2619,
      "▁transmis": 2620,
      "▁suivants :\r\n": 2621,
      "▁grav": 2622,
      "▁classe": 2623,
      "ains": 2624,
      "▁d'entre": 2625,
      "▁spécialis": 2626,
      "▁associés": 2627,
      "▁propor": 2628,
      "hé": 2629,
      "▁débiteur": 2630,
      "▁élus": 2631,
      "▁faits": 2632,
      "▁financières": 2633,
      "▁secrét": 2634,
      "occasion": 2635,
      "▁l'am": 2636,
      "exe": 2637,
      "▁répar": 2638,
      "▁nomm": 2639,
      "▁17": 2640,
      "ê": 2641,
      "▁plaf": 2642,
      "▁d'habit": 2643,
      "▁médical": 2644,
      "▁critères": 2645,
      "▁garanties": 2646,
      "▁aucune": 2647,
      "▁dispens": 2648,
      "lic": 2649,
      "▁inc": 2650,
      "▁compens": 2651,
      "cessi": 2652,
      "▁sché": 2653,
      "its": 2654,
      "▁accompl": 2655,
      "▁instru": 2656,
      "▁intérêts": 2657,
      "euv": 2658,
      "▁somme": 2659,
      "▁l'ordonnance": 2660,
      "▁groupements": 2661,
      "▁l'acte": 2662,
      "▁hau": 2663,
      "▁hospit": 2664,
      "▁résultat": 2665,
      "▁revenus": 2666,
      "▁favor": 2667,
      "▁scol": 2668,
      "▁l'utilisation": 2669,
      "▁exercice": 2670,
      "▁―": 2671,
      "▁projets": 2672,
      "uré": 2673,
      "▁intérieur": 2674,
      "▁2.": 2675,
      "▁cent": 2676,
      "▁provis": 2677,
      "▁dispositifs": 2678,
      "▁sociale,": 2679,
      "▁esti": 2680,
      "▁contrav": 2681,
      "▁lorsqu'un": 2682,
      "▁fich": 2683,
      "▁manque": 2684,
      "▁soumises": 2685,
      "▁inférieure": 2686,
      "▁répartition": 2687,
      "▁1.": 2688,
      "▁organ": 2689,
      "▁justific": 2690,
      "▁journal": 2691,
      "▁nul": 2692,
      "▁l'exploitation": 2693,
      "▁align=\"center\">": 2694,
      "▁chi": 2695,
      "dique": 2696,
      "tité": 2697,
      "positions": 2698,
      "▁qu'elles": 2699,
      "-et": 2700,
      "▁sous-se": 2701,
      "▁aides": 2702,
      "▁alors": 2703,
      "▁suc": 2704,
      "▁bénéficiaires": 2705,
      "▁prom": 2706,
      "▁rédi": 2707,
      "▁d'accueil": 2708,
      "lectric": 2709,
      "▁l'étranger": 2710,
      "▁recommandée": 2711,
      "▁placement": 2712,
      "atric": 2713,
      "▁\" ;\r\n": 2714,
      "▁établie": 2715,
      "▁particulières": 2716,
      "▁cess": 2717,
      "▁14": 2718,
      "▁adressée": 2719,
      "▁chois": 2720,
      "▁zones": 2721,
      "isonnement": 2722,
      "▁exam": 2723,
      "▁nu": 2724,
      "▁chargée": 2725,
      "▁morales": 2726,
      "▁l'all": 2727,
      "▁mai": 2728,
      "▁esp": 2729,
      ") ;\r\n": 2730,
      "mprisonnement": 2731,
      "▁oc": 2732,
      "dr": 2733,
      "▁conformité": 2734,
      "▁mét": 2735,
      "▁échéant": 2736,
      "▁délibérations": 2737,
      "▁propre": 2738,
      "▁iden": 2739,
      "▁composition": 2740,
      "▁dir": 2741,
      "▁susceptible": 2742,
      "▁domm": 2743,
      "▁dirig": 2744,
      "▁long": 2745,
      "ertion": 2746,
      "▁pays": 2747,
      "▁l'ég": 2748,
      "-f": 2749,
      "voi": 2750,
      "▁préalablement": 2751,
      "▁bil": 2752,
      "▁environnement": 2753,
      "▁d'origine": 2754,
      "▁imp": 2755,
      "térie": 2756,
      "ible": 2757,
      "▁l'évaluation": 2758,
      ").\r\n": 2759,
      "▁déterminé": 2760,
      "▁résidence": 2761,
      "▁prescriptions": 2762,
      "▁contribution": 2763,
      "sim": 2764,
      "ide": 2765,
      "▁entraî": 2766,
      "étaire": 2767,
      "▁l'amende": 2768,
      "▁propres": 2769,
      "istance": 2770,
      "▁50": 2771,
      "▁je": 2772,
      "̧on": 2773,
      "▁â": 2774,
      "▁lieu,": 2775,
      "▁revenu": 2776,
      "▁sanc": 2777,
      "▁fo": 2778,
      "▁signature": 2779,
      "▁permettre": 2780,
      "▁pati": 2781,
      "▁conforme": 2782,
      "endu": 2783,
      "▁secteur": 2784,
      "itée": 2785,
      "▁sanctions": 2786,
      "▁telle": 2787,
      "▁délégué": 2788,
      "seignements": 2789,
      "▁l'institut": 2790,
      "▁concours": 2791,
      "agraph": 2792,
      "aill": 2793,
      "▁présentation": 2794,
      "▁mises": 2795,
      "meu": 2796,
      "▁consul": 2797,
      "▁l'agent": 2798,
      "▁présence": 2799,
      "tiers": 2800,
      "propr": 2801,
      "▁l'infr": 2802,
      "▁d'exercice": 2803,
      "▁procès-verbal": 2804,
      "▁procède": 2805,
      "▁div": 2806,
      "▁sanitaire": 2807,
      "▁prudentiel": 2808,
      "ologique": 2809,
      "▁indép": 2810,
      "▁formul": 2811,
      "▁prestation": 2812,
      "uté": 2813,
      "tici": 2814,
      "▁l'occasion": 2815,
      "▁non-": 2816,
      "▁l'éducation": 2817,
      "▁conten": 2818,
      "ock": 2819,
      "yc": 2820,
      "iser": 2821,
      "▁parc": 2822,
      "atement": 2823,
      "▁donne": 2824,
      "▁d'exécution": 2825,
      "▁marchandises": 2826,
      "▁périmètre": 2827,
      "▁plur": 2828,
      "▁donner": 2829,
      "éb": 2830,
      "clé": 2831,
      "▁prescrit": 2832,
      "▁suite": 2833,
      "tallation": 2834,
      "jou": 2835,
      "▁stock": 2836,
      "▁d'exp": 2837,
      "▁d'avis": 2838,
      "▁greffe": 2839,
      "▁surf": 2840,
      "mat": 2841,
      "▁manif": 2842,
      "▁chambres": 2843,
      "▁corps": 2844,
      "▁plafond": 2845,
      "▁fut": 2846,
      "▁désignation": 2847,
      "-4": 2848,
      "▁exception": 2849,
      "meuble": 2850,
      "uelle": 2851,
      "▁affaires": 2852,
      "t,": 2853,
      "posent": 2854,
      "▁sous-section": 2855,
      "▁complémentaire": 2856,
      "▁col": 2857,
      "▁limites": 2858,
      "mprun": 2859,
      "▁habilité": 2860,
      "▁soumise": 2861,
      "▁minimum": 2862,
      "una": 2863,
      "allis": 2864,
      "▁d'aff": 2865,
      "▁politique": 2866,
      "▁wallis": 2867,
      "▁subordonn": 2868,
      "▁seuil": 2869,
      "cident": 2870,
      "▁acte": 2871,
      "▁destinés": 2872,
      "▁23": 2873,
      "▁créanci": 2874,
      "̀le": 2875,
      "titude": 2876,
      "▁l'opération": 2877,
      "▁rési": 2878,
      "▁engagements": 2879,
      "▁d'instruction": 2880,
      "▁comportant": 2881,
      "▁aucun": 2882,
      "▁l'adresse": 2883,
      "ale.\r\n": 2884,
      "▁saisie": 2885,
      "antes": 2886,
      "▁porter": 2887,
      "▁distin": 2888,
      "▁habilités": 2889,
      "▁délivrée": 2890,
      "signe": 2891,
      "ations,": 2892,
      "▁fonctionnaires": 2893,
      "▁tenant": 2894,
      "▁l'économie": 2895,
      "▁appartenant": 2896,
      "er.\r\n": 2897,
      "duc": 2898,
      "▁collectif": 2899,
      "▁travailleurs": 2900,
      "▁vét": 2901,
      "one": 2902,
      "▁aér": 2903,
      "▁198": 2904,
      "ande": 2905,
      "0,": 2906,
      "▁d'at": 2907,
      "ciens": 2908,
      "gagement": 2909,
      "atis": 2910,
      "▁lic": 2911,
      "▁provision": 2912,
      "▁tra": 2913,
      "▁25": 2914,
      "atici": 2915,
      "▁gl": 2916,
      "▁consommation": 2917,
      "▁lorsqu'ils": 2918,
      "▁gouver": 2919,
      "▁coordonn": 2920,
      "▁l'association": 2921,
      "ariat": 2922,
      "▁déchets": 2923,
      "▁apport": 2924,
      "▁délégation": 2925,
      "▁bureau": 2926,
      "▁occup": 2927,
      "▁vétér": 2928,
      "erie": 2929,
      "▁l'accès": 2930,
      "▁6°": 2931,
      "▁21": 2932,
      "▁mandataire": 2933,
      "▁juin": 2934,
      "▁attributions": 2935,
      "▁immédiatement": 2936,
      "▁pharma": 2937,
      "em": 2938,
      "▁clô": 2939,
      "▁majorité": 2940,
      "▁pop": 2941,
      "▁ci-": 2942,
      "▁suit": 2943,
      "▁approuv": 2944,
      "▁paragraph": 2945,
      "▁pratici": 2946,
      "▁départementale": 2947,
      "▁choix": 2948,
      "▁enfants": 2949,
      "▁l'impôt": 2950,
      "▁méc": 2951,
      "▁l'assurance": 2952,
      "▁information": 2953,
      "▁déterminées": 2954,
      "aces": 2955,
      "ses": 2956,
      "seur": 2957,
      "▁grat": 2958,
      "2-1": 2959,
      "▁pouvant": 2960,
      "▁trouv": 2961,
      "▁recueill": 2962,
      "identité": 2963,
      "▁publicité": 2964,
      "▁nouvelle-calédonie": 2965,
      "▁s'agit": 2966,
      "▁d'accès": 2967,
      "▁dernière": 2968,
      "puis": 2969,
      "▁ci-après": 2970,
      "▁prévis": 2971,
      "▁nuclé": 2972,
      "▁contenu": 2973,
      "▁type": 2974,
      "oine": 2975,
      "▁reti": 2976,
      "option": 2977,
      "agnement": 2978,
      "▁fabr": 2979,
      "▁besoin": 2980,
      "▁public,": 2981,
      "▁formations": 2982,
      "rier": 2983,
      "▁app": 2984,
      "lon": 2985,
      "▁capacité": 2986,
      "▁union": 2987,
      "▁acquis": 2988,
      "▁n'ex": 2989,
      "▁tour": 2990,
      "mettre": 2991,
      "▁patrimoine": 2992,
      "▁d'eau": 2993,
      "▁réglementation": 2994,
      "outre": 2995,
      "▁liquidation": 2996,
      "▁caiss": 2997,
      "▁consign": 2998,
      "lectricité": 2999,
      "▁l'allocation": 3000,
      "▁relève": 3001,
      "outre-m": 3002,
      "▁exigences": 3003,
      "▁dépl": 3004,
      "▁chiff": 3005,
      "▁compl": 3006,
      "▁hum": 3007,
      "erti": 3008,
      "▁dénom": 3009,
      "▁l'instruction": 3010,
      "....": 3011,
      "▁indique": 3012,
      "▁lorsqu'une": 3013,
      "▁d'ob": 3014,
      "▁assis": 3015,
      "ov": 3016,
      "▁l'assuré": 3017,
      "▁affectés": 3018,
      "▁a.": 3019,
      "▁schéma": 3020,
      "▁dû": 3021,
      "▁import": 3022,
      "▁depuis": 3023,
      "▁maximum": 3024,
      "porteur": 3025,
      "simil": 3026,
      "▁scr": 3027,
      "▁outre,": 3028,
      "▁l'examen": 3029,
      "▁secret": 3030,
      "▁que,": 3031,
      "▁auquel": 3032,
      "agers": 3033,
      "▁certaines": 3034,
      "▁juri": 3035,
      "valid": 3036,
      "▁l'indemnité": 3037,
      "▁hospital": 3038,
      "▁satisf": 3039,
      "▁cinémat": 3040,
      "▁cinématograph": 3041,
      "tient": 3042,
      "▁terr": 3043,
      "▁famille": 3044,
      "attach": 3045,
      "▁trente": 3046,
      "▁points": 3047,
      "mar": 3048,
      "▁vice": 3049,
      "▁conservation": 3050,
      "▁d'office": 3051,
      "▁changement": 3052,
      "▁congé": 3053,
      "▁régulation": 3054,
      "▁respectivement": 3055,
      "▁céd": 3056,
      "▁appliqu": 3057,
      "▁l'infraction": 3058,
      "▁tel": 3059,
      "▁dér": 3060,
      "issent": 3061,
      "▁sollic": 3062,
      "▁dispon": 3063,
      "▁d'exerc": 3064,
      "▁provisoire": 3065,
      "▁bois": 3066,
      "▁indemnités": 3067,
      "▁immeubles": 3068,
      "▁concernés": 3069,
      "▁officie": 3070,
      "-me": 3071,
      "▁distribu": 3072,
      "▁d'urg": 3073,
      "entrée": 3074,
      "▁tient": 3075,
      "▁caisses": 3076,
      "étique": 3077,
      "▁profit": 3078,
      "▁lab": 3079,
      "▁coopér": 3080,
      "▁mineur": 3081,
      "▁lign": 3082,
      "▁maximale": 3083,
      "▁l'information": 3084,
      "t.": 3085,
      "▁d'amende": 3086,
      "▁périodes": 3087,
      "▁connaître": 3088,
      "cend": 3089,
      "▁habit": 3090,
      "▁métropole": 3091,
      "ére": 3092,
      "▁on": 3093,
      "▁fraction": 3094,
      "▁réput": 3095,
      "▁saisi": 3096,
      "▁contrôles": 3097,
      "▁publique,": 3098,
      "-mê": 3099,
      "▁moiti": 3100,
      "▁glob": 3101,
      "-5": 3102,
      "</": 3103,
      "ionn": 3104,
      "▁bilan": 3105,
      "hérap": 3106,
      "pection": 3107,
      "▁contrôl": 3108,
      "▁mois,": 3109,
      "utin": 3110,
      "éberg": 3111,
      "▁scrutin": 3112,
      "▁quar": 3113,
      "▁navig": 3114,
      "ior": 3115,
      "▁contraventions": 3116,
      "▁bul": 3117,
      "▁d'emprisonnement": 3118,
      "▁assimil": 3119,
      "▁seul": 3120,
      "▁ve": 3121,
      "▁l'égard": 3122,
      "▁i,": 3123,
      "▁clôture": 3124,
      "▁vice-": 3125,
      "▁join": 3126,
      "▁ :\r\n": 3127,
      "once": 3128,
      "▁18": 3129,
      "▁guer": 3130,
      "yan": 3131,
      "ro": 3132,
      "▁valeurs": 3133,
      "letin": 3134,
      "▁sport": 3135,
      "▁totale": 3136,
      "▁acc": 3137,
      "▁d'emploi": 3138,
      "▁l'équip": 3139,
      "▁inscrits": 3140,
      "▁signif": 3141,
      "▁soient": 3142,
      "▁aur": 3143,
      "▁prononcée": 3144,
      "▁bulletin": 3145,
      "▁huit": 3146,
      "▁mayotte": 3147,
      "▁visés": 3148,
      "▁façon": 3149,
      "▁auxquelles": 3150,
      "oles": 3151,
      "▁indic": 3152,
      "▁vac": 3153,
      "▁impl": 3154,
      "▁désigne": 3155,
      "▁matériels": 3156,
      "▁envisag": 3157,
      "▁ans,": 3158,
      "▁élector": 3159,
      "▁100": 3160,
      "ress": 3161,
      "▁décret.\r\n": 3162,
      "▁rejet": 3163,
      "▁quanti": 3164,
      "▁hy": 3165,
      "▁guyan": 3166,
      "▁appropr": 3167,
      "̀me": 3168,
      "rég": 3169,
      "clam": 3170,
      "ub": 3171,
      "▁etats": 3172,
      "istant": 3173,
      "titue": 3174,
      "▁médicaments": 3175,
      "▁mix": 3176,
      "▁préven": 3177,
      "▁continu": 3178,
      "̂ge": 3179,
      "usage": 3180,
      "▁rattach": 3181,
      "▁définit": 3182,
      "▁déclarations": 3183,
      "▁gratuit": 3184,
      "▁l'annexe": 3185,
      "▁moitié": 3186,
      "▁point": 3187,
      "▁communications": 3188,
      "▁bre": 3189,
      "▁s'ass": 3190,
      "▁solidarité": 3191,
      "▁men": 3192,
      "▁effectuée": 3193,
      "cidents": 3194,
      "▁délai,": 3195,
      "▁effectué": 3196,
      "/201": 3197,
      "▁inv": 3198,
      "▁tenus": 3199,
      "▁sociaux": 3200,
      "▁d'exercer": 3201,
      "▁d'assurer": 3202,
      "▁assurances": 3203,
      "▁exprim": 3204,
      "▁réalisées": 3205,
      "▁centres": 3206,
      "▁accès": 3207,
      "▁versées": 3208,
      "▁sera": 3209,
      "▁circonstances": 3210,
      "able,": 3211,
      "▁puis": 3212,
      "▁n'ont": 3213,
      "▁réalisée": 3214,
      "tégr": 3215,
      "▁rural": 3216,
      "ych": 3217,
      "▁réseaux": 3218,
      "▁prélèvement": 3219,
      "▁peuvent,": 3220,
      "orientation": 3221,
      "▁cinquième": 3222,
      "▁emploi": 3223,
      "ologiques": 3224,
      "▁contest": 3225,
      "ovis": 3226,
      "▁réglementaires": 3227,
      "▁qu'une": 3228,
      "▁bl": 3229,
      "▁l'installation": 3230,
      "▁concurrence": 3231,
      "vembre": 3232,
      "▁novembre": 3233,
      "▁renseignements": 3234,
      "▁secours": 3235,
      "▁maintien": 3236,
      "▁ajou": 3237,
      "▁concerné": 3238,
      "▁complémentaires": 3239,
      "▁grand": 3240,
      "▁statue": 3241,
      "▁étr": 3242,
      "▁donné": 3243,
      "▁ret": 3244,
      "▁judici": 3245,
      "▁rédigé": 3246,
      "écu": 3247,
      "▁déj": 3248,
      "▁autorisé": 3249,
      "▁navire": 3250,
      "▁proté": 3251,
      "▁autom": 3252,
      "▁évalu": 3253,
      "▁gé": 3254,
      "▁déterminée": 3255,
      "▁gouvernement": 3256,
      "▁académ": 3257,
      "▁unités": 3258,
      "▁lorsqu'elle": 3259,
      "▁relèvent": 3260,
      "-6": 3261,
      "▁mer": 3262,
      "▁exe": 3263,
      "▁tenue": 3264,
      "▁pu": 3265,
      "▁l'él": 3266,
      "▁douanes": 3267,
      "▁poursuiv": 3268,
      "▁créances": 3269,
      "▁location": 3270,
      "▁établit": 3271,
      "▁déjà": 3272,
      "▁d'impôt": 3273,
      "▁encour": 3274,
      "▁victime": 3275,
      "▁exceptionn": 3276,
      "▁net": 3277,
      "▁d'util": 3278,
      "▁l'enfant": 3279,
      "▁l'aff": 3280,
      "compagnement": 3281,
      "anim": 3282,
      "ierre": 3283,
      "▁loyer": 3284,
      "▁l'opér": 3285,
      "▁travail.\r\n": 3286,
      "inaires": 3287,
      "▁adop": 3288,
      "▁mutualité": 3289,
      "tier": 3290,
      "▁bail": 3291,
      "▁dur": 3292,
      "▁l'ob": 3293,
      "président": 3294,
      "▁matières": 3295,
      "▁commissions": 3296,
      "▁l'audi": 3297,
      "▁exclusi": 3298,
      "▁empl": 3299,
      "▁constitution": 3300,
      "▁entend": 3301,
      "▁parten": 3302,
      "▁clau": 3303,
      "▁colonne": 3304,
      "▁champ": 3305,
      "rogé": 3306,
      "▁saint-p": 3307,
      "▁coût": 3308,
      "▁dispos": 3309,
      "▁univers": 3310,
      "▁î": 3311,
      "▁voi": 3312,
      "▁oeuv": 3313,
      "▁listes": 3314,
      "rains": 3315,
      "▁lut": 3316,
      "unes": 3317,
      "▁2014": 3318,
      "▁familles": 3319,
      "mpê": 3320,
      "▁paragraphe": 3321,
      "▁l'exclusion": 3322,
      "▁l'ach": 3323,
      "▁garde": 3324,
      "▁prior": 3325,
      "cueill": 3326,
      "▁vii": 3327,
      "▁mens": 3328,
      "▁notifiée": 3329,
      "▁utilisés": 3330,
      "▁saint-pierre": 3331,
      "▁contributions": 3332,
      "iquelon": 3333,
      "porter": 3334,
      "▁direct": 3335,
      "elle,": 3336,
      "▁études": 3337,
      "-et-m": 3338,
      "▁certification": 3339,
      "ibilité": 3340,
      "▁dues": 3341,
      "▁iss": 3342,
      "ression": 3343,
      "-de": 3344,
      "titution": 3345,
      "▁effectuées": 3346,
      "seurs": 3347,
      "▁conséqu": 3348,
      "▁examen": 3349,
      "▁coord": 3350,
      "▁autorisations": 3351,
      "▁livr": 3352,
      "▁131": 3353,
      "▁répon": 3354,
      "▁douze": 3355,
      "▁antérieure": 3356,
      "▁stage": 3357,
      "▁fédération": 3358,
      "▁appréci": 3359,
      "▁24": 3360,
      "▁suffis": 3361,
      "▁méth": 3362,
      "▁dotation": 3363,
      "▁nommés": 3364,
      "▁expl": 3365,
      "obation": 3366,
      "▁d'agrément": 3367,
      "tations": 3368,
      "▁visées": 3369,
      "alyse": 3370,
      "-et-miquelon": 3371,
      "ement,": 3372,
      "▁bate": 3373,
      "▁26": 3374,
      "▁modèle": 3375,
      "uel": 3376,
      "▁fonc": 3377,
      "ocat": 3378,
      "▁d'entreprise": 3379,
      "▁d'ordre": 3380,
      "▁mè": 3381,
      "▁îles": 3382,
      "▁d'inform": 3383,
      "▁modifications": 3384,
      "▁maî": 3385,
      "▁d'utilisation": 3386,
      "▁jeunes": 3387,
      "ires": 3388,
      "▁concernée": 3389,
      "▁épre": 3390,
      "▁résil": 3391,
      "▁commis": 3392,
      "▁ps": 3393,
      "enne": 3394,
      "arth": 3395,
      "▁justifier": 3396,
      "▁70": 3397,
      "▁magistrat": 3398,
      "▁structure": 3399,
      "▁saint-pierre-et-miquelon": 3400,
      "▁règlements": 3401,
      "gés": 3402,
      "▁santé.\r\n": 3403,
      "▁précédant": 3404,
      "▁vice-président": 3405,
      "▁france,": 3406,
      "p><": 3407,
      "▁d'éc": 3408,
      "▁prévoit": 3409,
      "▁bénéficient": 3410,
      "▁accompagnée": 3411,
      "▁compar": 3412,
      "▁sociale.\r\n": 3413,
      "▁ans.\r\n": 3414,
      "▁(ce": 3415,
      "ore": 3416,
      "▁qualification": 3417,
      "▁martin": 3418,
      "</p><": 3419,
      "▁admis": 3420,
      "▁mars": 3421,
      "▁cotisation": 3422,
      "validité": 3423,
      "▁d'identification": 3424,
      "▁vu": 3425,
      "▁naturel": 3426,
      "▁étrange": 3427,
      "▁l'entre": 3428,
      "▁l'enc": 3429,
      "▁victimes": 3430,
      "ges": 3431,
      "▁obtenu": 3432,
      "▁directive": 3433,
      "con": 3434,
      "▁concession": 3435,
      "lèves": 3436,
      "▁prestataire": 3437,
      "▁conseiller": 3438,
      "▁effets": 3439,
      "▁forfaitaire": 3440,
      "aboration": 3441,
      "▁systèmes": 3442,
      "▁qu'aux": 3443,
      "▁générales": 3444,
      "▁ii,": 3445,
      "▁d'évaluation": 3446,
      "▁psych": 3447,
      "▁circulation": 3448,
      "▁l'attribution": 3449,
      "▁vari": 3450,
      "hésion": 3451,
      "▁accep": 3452,
      "▁surface": 3453,
      "▁d'al": 3454,
      "▁compor": 3455,
      "▁fonci": 3456,
      "▁fournir": 3457,
      "▁crédits": 3458,
      "éle": 3459,
      "ous": 3460,
      "▁réaliser": 3461,
      "▁motifs": 3462,
      "▁privé": 3463,
      "▁notifie": 3464,
      "▁métho": 3465,
      "▁maître": 3466,
      "▁régimes": 3467,
      "▁sem": 3468,
      "▁libert": 3469,
      "▁due": 3470,
      "▁saint-mar": 3471,
      "▁régulière": 3472,
      "dre": 3473,
      "▁eaux": 3474,
      "▁ban": 3475,
      "▁l'administr": 3476,
      "▁viol": 3477,
      "gment": 3478,
      "use": 3479,
      "udes": 3480,
      "▁énum": 3481,
      "▁pénitentiaire": 3482,
      "hors": 3483,
      "▁indépend": 3484,
      "▁seule": 3485,
      "▁d'aide": 3486,
      "▁197": 3487,
      "▁complét": 3488,
      "▁participer": 3489,
      "▁compétentes": 3490,
      "▁souscrit": 3491,
      "▁saint-martin": 3492,
      "▁terrains": 3493,
      "▁respecter": 3494,
      "▁futuna": 3495,
      "gré": 3496,
      "▁qu'un": 3497,
      "▁précisées": 3498,
      "trui": 3499,
      "termédi": 3500,
      "▁attestation": 3501,
      "▁représentatives": 3502,
      "▁gend": 3503,
      "▁établis": 3504,
      "▁ouvrages": 3505,
      "▁bord": 3506,
      "▁d'ép": 3507,
      "▁pratiqu": 3508,
      "▁contractu": 3509,
      "▁requête": 3510,
      "▁l'év": 3511,
      "▁armées": 3512,
      "uration": 3513,
      "umul": 3514,
      "▁certains": 3515,
      "▁dommages": 3516,
      "▁juridique": 3517,
      "▁actifs": 3518,
      "▁ess": 3519,
      "▁bon": 3520,
      "organe": 3521,
      "▁saint-b": 3522,
      "my": 3523,
      "▁énerg": 3524,
      "▁tex": 3525,
      "▁2016": 3526,
      "▁coup": 3527,
      "▁permanente": 3528,
      "▁str": 3529,
      "▁liés": 3530,
      "ouvrage": 3531,
      "▁scientifique": 3532,
      "),": 3533,
      "dé": 3534,
      "▁artis": 3535,
      "▁l'acquisition": 3536,
      "arthéle": 3537,
      "arthélemy": 3538,
      "▁prénom": 3539,
      "▁d'autre": 3540,
      "▁situés": 3541,
      "▁vaut": 3542,
      "vet": 3543,
      "▁vingt-": 3544,
      "▁réclam": 3545,
      "▁saint-barthélemy": 3546,
      "▁dehors": 3547,
      "▁fau": 3548,
      "▁ense": 3549,
      "▁détermination": 3550,
      "▁exécu": 3551,
      "astruc": 3552,
      "▁situé": 3553,
      "▁dat": 3554,
      "▁d'él": 3555,
      "ocations": 3556,
      "▁motivée": 3557,
      "▁voies": 3558,
      "▁officiel": 3559,
      "auté": 3560,
      "▁dépôts": 3561,
      "▁eux": 3562,
      "▁liées": 3563,
      "▁l'organe": 3564,
      "▁pouvoirs": 3565,
      "oph": 3566,
      "▁administratives": 3567,
      "év": 3568,
      "▁interdit": 3569,
      "▁accordée": 3570,
      "eure": 3571,
      "▁promo": 3572,
      "▁libér": 3573,
      "-7": 3574,
      "▁nomin": 3575,
      "▁bâtiment": 3576,
      "▁distinc": 3577,
      "▁identifi": 3578,
      "-r": 3579,
      "▁amende": 3580,
      "▁éventuellement": 3581,
      "▁1°,": 3582,
      "▁étudi": 3583,
      "▁coordination": 3584,
      "▁l'ouverture": 3585,
      "▁aliment": 3586,
      "▁remplacées": 3587,
      "anche": 3588,
      "ortie": 3589,
      "▁art.": 3590,
      "▁l'autre": 3591,
      "▁derniers": 3592,
      "▁l'inscription": 3593,
      "▁moyenne": 3594,
      "▁intéressés": 3595,
      "▁œuvres": 3596,
      "▁dirige": 3597,
      "▁médecins": 3598,
      "▁asse": 3599,
      "▁vérification": 3600,
      "▁territoires": 3601,
      "▁d'ind": 3602,
      "▁animaux": 3603,
      "comm": 3604,
      "dite": 3605,
      "▁env": 3606,
      "▁convocation": 3607,
      "▁d'inscription": 3608,
      "▁plans": 3609,
      "▁gendarm": 3610,
      "tob": 3611,
      "▁constru": 3612,
      "▁opérateurs": 3613,
      "▁orient": 3614,
      "▁dés": 3615,
      "▁informé": 3616,
      "ril": 3617,
      "▁propriétaires": 3618,
      "▁définitive": 3619,
      "▁l'opérateur": 3620,
      "▁ouvert": 3621,
      "▁assuré": 3622,
      "ontre": 3623,
      "▁aéri": 3624,
      "▁d'ach": 3625,
      "▁postes": 3626,
      "▁conduite": 3627,
      "▁att": 3628,
      "▁judiciaires": 3629,
      "▁conseillers": 3630,
      "▁proportionn": 3631,
      "cteurs": 3632,
      "▁k": 3633,
      "▁résul": 3634,
      "▁étrang": 3635,
      "oul": 3636,
      "▁publique.\r\n": 3637,
      "▁rédigé :\r\n": 3638,
      "▁effectués": 3639,
      "vabilité": 3640,
      "▁recevoir": 3641,
      "▁octob": 3642,
      "▁2019": 3643,
      "▁repro": 3644,
      "▁indemnité": 3645,
      "▁livraison": 3646,
      "▁avril": 3647,
      "▁renouvelable": 3648,
      "▁manquement": 3649,
      "▁29": 3650,
      "▁sections": 3651,
      "▁spécifiques": 3652,
      "▁réponse": 3653,
      "▁l'identité": 3654,
      "▁réalisés": 3655,
      "▁autorisés": 3656,
      "▁l'as": 3657,
      "▁cah": 3658,
      "▁organisation": 3659,
      "▁d'outre-m": 3660,
      "iciers": 3661,
      "▁si,": 3662,
      "▁individuel": 3663,
      "▁comple": 3664,
      "▁exercent": 3665,
      "▁matériel": 3666,
      "▁lo": 3667,
      "▁preuve": 3668,
      ")\r\n": 3669,
      "▁lutte": 3670,
      "▁détent": 3671,
      "▁labor": 3672,
      "▁hom": 3673,
      "▁octobre": 3674,
      "▁greffier": 3675,
      "▁audiovis": 3676,
      "▁chiffre": 3677,
      "▁stratég": 3678,
      "▁représentation": 3679,
      "▁ceux-ci": 3680,
      "▁fait,": 3681,
      "regis": 3682,
      "▁mul": 3683,
      "▁aus": 3684,
      "▁mentionne": 3685,
      "▁guerre": 3686,
      "eaux": 3687,
      "▁versée": 3688,
      "▁d'équip": 3689,
      "▁recr": 3690,
      "▁taxes": 3691,
      "▁expos": 3692,
      "hérapeu": 3693,
      "▁a,": 3694,
      "▁enregis": 3695,
      "▁arrêtés": 3696,
      "▁concernées": 3697,
      "▁2017": 3698,
      "▁d'urbanisme": 3699,
      "▁précité": 3700,
      "▁responsables": 3701,
      "▁d'électricité": 3702,
      "▁prêts": 3703,
      "▁élig": 3704,
      "▁cumul": 3705,
      "▁saisine": 3706,
      "▁27": 3707,
      "▁qu'au": 3708,
      "▁mais": 3709,
      "▁parent": 3710,
      "abilitation": 3711,
      "▁redevance": 3712,
      "▁continue": 3713,
      "▁oeuvre": 3714,
      "agne": 3715,
      "▁\".\r\n": 3716,
      "▁3.": 3717,
      "trac": 3718,
      "▁régies": 3719,
      "▁terres": 3720,
      "▁pror": 3721,
      "▁lorsqu'elles": 3722,
      "-même": 3723,
      "▁(ce)": 3724,
      "▁annuelle": 3725,
      "▁atteinte": 3726,
      "▁baille": 3727,
      "▁tels": 3728,
      "▁portée": 3729,
      "▁obten": 3730,
      "▁réputé": 3731,
      "urent": 3732,
      "▁prononce": 3733,
      "▁auxquels": 3734,
      "▁fabrication": 3735,
      "istence": 3736,
      "▁représentant ;\r\n": 3737,
      "▁voy": 3738,
      "▁gendarmerie": 3739,
      "▁(ab": 3740,
      "tacle": 3741,
      "▁d'administr": 3742,
      "thè": 3743,
      "▁l'interdiction": 3744,
      "▁constitue": 3745,
      "▁salaire": 3746,
      "▁prévisionn": 3747,
      "▁tute": 3748,
      "▁médico-": 3749,
      "▁compensation": 3750,
      "▁fabric": 3751,
      "-h": 3752,
      "▁s'ils": 3753,
      "▁agréé": 3754,
      "▁décider": 3755,
      "min": 3756,
      "air": 3757,
      "▁instance": 3758,
      "▁reçu": 3759,
      "▁navires": 3760,
      "▁accueill": 3761,
      "▁prescription": 3762,
      "▁s'en": 3763,
      "▁grade": 3764,
      "enc": 3765,
      "▁s'e": 3766,
      "▁classement": 3767,
      "▁2021": 3768,
      "/200": 3769,
      "▁communauté": 3770,
      "▁l'intégr": 3771,
      "▁formes": 3772,
      "▁négoci": 3773,
      "▁ord": 3774,
      "ent.\r\n": 3775,
      "sionnaire": 3776,
      "▁prêt": 3777,
      "▁” ;\r\n": 3778,
      "▁début": 3779,
      "▁manifest": 3780,
      "complissement": 3781,
      "▁foresti": 3782,
      "ébergement": 3783,
      "olu": 3784,
      "▁vieilles": 3785,
      "▁enregist": 3786,
      "▁requis": 3787,
      "▁cessation": 3788,
      "-comm": 3789,
      "▁corse": 3790,
      "ée ;\r\n": 3791,
      "▁exon": 3792,
      "atriculation": 3793,
      "▁totalité": 3794,
      "▁maritimes": 3795,
      "▁familiales": 3796,
      "argne": 3797,
      "ertise": 3798,
      "▁spécifique": 3799,
      "drom": 3800,
      "▁prévoy": 3801,
      "▁command": 3802,
      "-val": 3803,
      "▁présid": 3804,
      "orer": 3805,
      "▁médi": 3806,
      "▁principal": 3807,
      "▁internet": 3808,
      "▁pratiques": 3809,
      "▁proven": 3810,
      "▁l'appr": 3811,
      "▁posi": 3812,
      "▁élab": 3813,
      "▁estime": 3814,
      "▁quo": 3815,
      "▁économiques": 3816,
      "▁foncière": 3817,
      "▁remplacée": 3818,
      "▁considérée": 3819,
      "▁substances": 3820,
      "▁urb": 3821,
      "▁fili": 3822,
      "▁programmes": 3823,
      "▁l'import": 3824,
      "▁régionaux": 3825,
      "▁relev": 3826,
      "-commiss": 3827,
      "▁consent": 3828,
      "▁coll": 3829,
      "estions": 3830,
      "▁intervenir": 3831,
      "▁révision": 3832,
      "▁perform": 3833,
      "▁d'etat,": 3834,
      "▁validité": 3835,
      "ieu": 3836,
      "▁l'accomplissement": 3837,
      "▁d'accord": 3838,
      "▁(abrogé": 3839,
      "▁prob": 3840,
      "▁l'intermédi": 3841,
      "▁conducteur": 3842,
      "▁pratique": 3843,
      "▁inves": 3844,
      "▁compati": 3845,
      "agnos": 3846,
      "▁installation": 3847,
      "areil": 3848,
      "▁réalisé": 3849,
      "▁adaptations": 3850,
      "▁reprise": 3851,
      "▁relations": 3852,
      "teur,": 3853,
      "eneur": 3854,
      "-de-": 3855,
      "▁l'élection": 3856,
      "tip": 3857,
      "▁l'engagement": 3858,
      "▁coûts": 3859,
      "▁dang": 3860,
      "ulté": 3861,
      "▁sépar": 3862,
      "▁rév": 3863,
      "ffectation": 3864,
      "ôle": 3865,
      "▁mois.\r\n": 3866,
      "▁prononcer": 3867,
      "▁l'etat.\r\n": 3868,
      "aceuti": 3869,
      "▁montants": 3870,
      "▁remis": 3871,
      "▁évaluation": 3872,
      "▁partiel": 3873,
      "▁directeurs": 3874,
      "▁préfec": 3875,
      "▁obtenir": 3876,
      "adel": 3877,
      "▁questions": 3878,
      "▁médicaux": 3879,
      "▁l'indication": 3880,
      "adeloup": 3881,
      "-p": 3882,
      "▁volu": 3883,
      "▁intégr": 3884,
      "▁souh": 3885,
      "▁diagnos": 3886,
      "▁guadeloup": 3887,
      "▁telles": 3888,
      "▁précédente": 3889,
      "ortiss": 3890,
      "11": 3891,
      "▁syndicales": 3892,
      "▁discipline": 3893,
      "▁infirm": 3894,
      "▁\",": 3895,
      "▁adjoin": 3896,
      "▁75": 3897,
      "▁d'affaires": 3898,
      "nes": 3899,
      "▁conduire": 3900,
      "▁28": 3901,
      "▁demande.\r\n": 3902,
      "atiques": 3903,
      "▁bas": 3904,
      "▁utiles": 3905,
      "2.": 3906,
      "▁monétaire": 3907,
      "érience": 3908,
      "▁reconnaissance": 3909,
      "▁tarifs": 3910,
      "▁plate": 3911,
      "issance": 3912,
      "▁align=\"left\"></td></tr><tr><td": 3913,
      "▁municipal": 3914,
      "▁qu'en": 3915,
      "▁tenir": 3916,
      "▁consécu": 3917,
      "▁producteur": 3918,
      "▁légal": 3919,
      "6-1": 3920,
      "▁valable": 3921,
      "uves": 3922,
      "▁forêts": 3923,
      "▁géograph": 3924,
      "mation": 3925,
      "▁destinées": 3926,
      "▁française,": 3927,
      "irurg": 3928,
      "alisée": 3929,
      "▁cahier": 3930,
      "▁intervient": 3931,
      "▁visite": 3932,
      "▁comptables": 3933,
      "▁public.\r\n": 3934,
      "▁objets": 3935,
      "▁prévoir": 3936,
      "▁localement": 3937,
      "▁lang": 3938,
      "▁propositions": 3939,
      "▁hab": 3940,
      "▁porté": 3941,
      "▁don": 3942,
      "▁emb": 3943,
      "▁orientations": 3944,
      "▁d'enregistrement": 3945,
      "▁obligation": 3946,
      "▁diffusion": 3947,
      "▁fondement": 3948,
      "ateur,": 3949,
      "▁frau": 3950,
      "lit": 3951,
      "▁présentant": 3952,
      "▁titre,": 3953,
      "▁fi": 3954,
      "éli": 3955,
      "▁communique": 3956,
      "aissances": 3957,
      "fs": 3958,
      "sses": 3959,
      "▁exercées": 3960,
      "▁sce": 3961,
      "▁président,": 3962,
      "▁différents": 3963,
      "▁«": 3964,
      "▁pénale": 3965,
      "▁préparation": 3966,
      "▁rembours": 3967,
      "▁fourniture": 3968,
      "tes,": 3969,
      "▁bénéficie": 3970,
      "▁détach": 3971,
      "▁pluri": 3972,
      "dent": 3973,
      "▁apparti": 3974,
      "▁eng": 3975,
      "▁l'intérêt": 3976,
      "▁impôts,": 3977,
      "▁garantir": 3978,
      "▁l'enquête": 3979,
      "▁brevet": 3980,
      "▁d'accompagnement": 3981,
      "p>": 3982,
      "▁chasse": 3983,
      "▁ayants": 3984,
      "oré": 3985,
      "▁domaines": 3986,
      "▁minimale": 3987,
      "▁fl": 3988,
      "▁annexe": 3989,
      "▁exécution": 3990,
      "èces": 3991,
      "▁praticien": 3992,
      "▁institutions": 3993,
      "▁500": 3994,
      "▁justifiant": 3995,
      "▁station": 3996,
      "tembre": 3997,
      "▁précisant": 3998,
      "▁septembre": 3999,
      "▁unions": 4000,
      "ventions": 4001,
      "▁stip": 4002,
      "▁séance": 4003,
      "▁l'immeuble": 4004,
      "▁centrale": 4005,
      "▁possible": 4006,
      "opposition": 4007,
      "▁perte": 4008,
      "▁mentions": 4009,
      "▁motif": 4010,
      "▁trou": 4011,
      "▁7°": 4012,
      "▁étrangers": 4013,
      "▁l'intermédiaire": 4014,
      "▁péd": 4015,
      "▁adhér": 4016,
      "▁nommé": 4017,
      "▁obs": 4018,
      "ule": 4019,
      "▁radio": 4020,
      "▁recteur": 4021,
      "▁lois": 4022,
      "▁diffic": 4023,
      "▁industrielle": 4024,
      "▁professions": 4025,
      "▁divers": 4026,
      "▁cyc": 4027,
      "▁d'utilité": 4028,
      "▁aide": 4029,
      "▁bailleur": 4030,
      "uffis": 4031,
      "▁investissement": 4032,
      "▁ligne": 4033,
      "▁naissance": 4034,
      "▁banque": 4035,
      "▁dén": 4036,
      "▁souhait": 4037,
      "▁d'imm": 4038,
      "▁code ;\r\n": 4039,
      "comb": 4040,
      "▁multi": 4041,
      "entis": 4042,
      "▁surven": 4043,
      "▁année,": 4044,
      "▁d'orientation": 4045,
      "▁enseign": 4046,
      "▁(1": 4047,
      "▁conclusion": 4048,
      "▁concour": 4049,
      "▁matern": 4050,
      "▁exempl": 4051,
      "▁d'urgence": 4052,
      "ose": 4053,
      "ment,": 4054,
      "ffici": 4055,
      "▁affecté": 4056,
      "▁considéré": 4057,
      "▁comprenant": 4058,
      "▁celles-ci": 4059,
      "▁placés": 4060,
      "▁cinématographiques": 4061,
      "▁l'existence": 4062,
      "olid": 4063,
      "▁majoration": 4064,
      "▁spécialité": 4065,
      "▁élèves": 4066,
      "▁conséquences": 4067,
      "▁assurée": 4068,
      "▁retenue": 4069,
      "▁l'auteur": 4070,
      "▁connaissances": 4071,
      "▁oppos": 4072,
      "▁tutelle": 4073,
      "chement": 4074,
      "▁quelque": 4075,
      "inte": 4076,
      "▁2004": 4077,
      "▁utile": 4078,
      "▁certifi": 4079,
      "▁disciplinaire": 4080,
      "▁l'aliment": 4081,
      "▁énonc": 4082,
      "▁chirurg": 4083,
      "▁régionales": 4084,
      "▁durant": 4085,
      "auche": 4086,
      "▁l'éch": 4087,
      "▁délibér": 4088,
      "▁pluriann": 4089,
      "▁déduction": 4090,
      "▁habitu": 4091,
      "▁spéciale": 4092,
      "▁particulière": 4093,
      "▁jusqu'au": 4094,
      "é ;\r\n": 4095,
      "▁judiciaire,": 4096,
      "▁exclusivement": 4097,
      "▁d'émission": 4098,
      "▁exploitants": 4099,
      "▁convoqu": 4100,
      "▁dénomination": 4101,
      "▁l'étu": 4102,
      "▁acquit": 4103,
      "▁académique": 4104,
      "▁officiers": 4105,
      "▁neu": 4106,
      "▁l'eau": 4107,
      "▁quater": 4108,
      "▁employeurs": 4109,
      "▁émis": 4110,
      "▁incomb": 4111,
      "▁1,": 4112,
      "▁d'acquisition": 4113,
      "▁remplacement": 4114,
      "▁transmises": 4115,
      "▁nom,": 4116,
      "▁réception,": 4117,
      "▁travailleur": 4118,
      "▁séances": 4119,
      "▁créance": 4120,
      "▁incl": 4121,
      "▁action": 4122,
      "▁constitué": 4123,
      "épiss": 4124,
      "▁récépiss": 4125,
      "-8": 4126,
      "rent": 4127,
      "estre": 4128,
      "▁vingt": 4129,
      "▁null": 4130,
      "▁électroniques": 4131,
      "▁d'ouverture": 4132,
      "▁rach": 4133,
      "▁d'appr": 4134,
      "▁satisfait": 4135,
      "▁sex": 4136,
      "sible": 4137,
      "▁incomp": 4138,
      "▁définitif": 4139,
      "▁l'âge": 4140,
      "▁vieillesse": 4141,
      "▁consolid": 4142,
      "▁d'organisation": 4143,
      "▁disposent": 4144,
      "▁personnalités": 4145,
      "▁40": 4146,
      "▁spec": 4147,
      "crire": 4148,
      "▁population": 4149,
      "1.": 4150,
      "▁agent": 4151,
      "▁l'offre": 4152,
      "▁particuliers": 4153,
      "▁supprimés ;\r\n": 4154,
      "▁législation": 4155,
      "▁d'attribution": 4156,
      "▁communaut": 4157,
      "▁justifie": 4158,
      "▁délivrer": 4159,
      "▁poste": 4160,
      "▁bâtiments": 4161,
      "▁certificats": 4162,
      "erte": 4163,
      "▁nucléaire": 4164,
      "▁eu": 4165,
      "▁restant": 4166,
      "▁secrétaire": 4167,
      "ée.": 4168,
      "▁comptabilité": 4169,
      "▁mobilité": 4170,
      "▁établies": 4171,
      "▁foncier": 4172,
      "cies": 4173,
      "testation": 4174,
      "aît": 4175,
      "▁diagnostic": 4176,
      "▁avantages": 4177,
      "▁calculé": 4178,
      "▁d'épargne": 4179,
      "▁premiers": 4180,
      "▁pot": 4181,
      "agog": 4182,
      "▁aménag": 4183,
      "</td></tr><tr><td": 4184,
      "▁intermédi": 4185,
      "▁d'actions": 4186,
      "minis": 4187,
      "▁soit,": 4188,
      "▁description": 4189,
      "▁éduc": 4190,
      "▁pourcent": 4191,
      "▁partage": 4192,
      "▁assurés": 4193,
      "ées ;\r\n": 4194,
      "▁présents": 4195,
      "-del": 4196,
      "▁ir": 4197,
      "▁2013": 4198,
      "▁mixte": 4199,
      "-huit": 4200,
      "ulations": 4201,
      "-delà": 4202,
      "▁élev": 4203,
      "▁fonctionnaire": 4204,
      "▁194": 4205,
      "▁condamnation": 4206,
      "▁pédagog": 4207,
      "co": 4208,
      "▁au-delà": 4209,
      "ilib": 4210,
      "érir": 4211,
      "▁commissaires": 4212,
      "▁d'exploit": 4213,
      "▁déci": 4214,
      "▁indirectement": 4215,
      "▁protég": 4216,
      "▁ressortiss": 4217,
      "▁agréés": 4218,
      "▁mètres": 4219,
      "érence": 4220,
      "▁jou": 4221,
      "▁immobilier": 4222,
      "▁volontaire": 4223,
      "▁supplémentaire": 4224,
      "▁augment": 4225,
      "▁placé": 4226,
      "▁lorsque,": 4227,
      "▁contraire": 4228,
      "▁consultative": 4229,
      "▁ordre": 4230,
      "▁association": 4231,
      "▁parents": 4232,
      "▁l'environnement,": 4233,
      "tte": 4234,
      "▁l'inspection": 4235,
      "▁principes": 4236,
      "▁ult": 4237,
      "▁diss": 4238,
      "endue": 4239,
      "mes,": 4240,
      "▁prim": 4241,
      "▁distance": 4242,
      "▁existe": 4243,
      "▁bénéficiant": 4244,
      "▁libertés": 4245,
      "▁pharmac": 4246,
      "▁alinéa.\r\n": 4247,
      "▁conjointement": 4248,
      "▁syndicat": 4249,
      "▁or": 4250,
      "siet": 4251,
      "▁cass": 4252,
      "aires.\r\n": 4253,
      "▁obligatoires": 4254,
      "▁rapports": 4255,
      "▁l'imm": 4256,
      "▁veille": 4257,
      "▁cli": 4258,
      "▁stockage": 4259,
      "▁accidents": 4260,
      "▁présentée": 4261,
      "arer": 4262,
      "nelle": 4263,
      "▁l'usage": 4264,
      "▁l'entité": 4265,
      "▁l'habitation": 4266,
      "▁entraîn": 4267,
      "▁libre": 4268,
      "▁trouve": 4269,
      "hin": 4270,
      "▁effectif": 4271,
      "▁inscription": 4272,
      "▁magistrats": 4273,
      "▁actionn": 4274,
      "▁accessi": 4275,
      "▁présidents": 4276,
      "▁compétents": 4277,
      "▁l'aviation": 4278,
      "▁différentes": 4279,
      "ants.\r\n": 4280,
      "isant": 4281,
      "▁identi": 4282,
      "▁haute": 4283,
      "▁emplois": 4284,
      "-commissaire": 4285,
      "▁dudit": 4286,
      "cendie": 4287,
      "▁réass": 4288,
      "▁suivante": 4289,
      "▁numérique": 4290,
      "▁»": 4291,
      "▁possibilité": 4292,
      "▁fré": 4293,
      "▁rémunérations": 4294,
      "▁usagers": 4295,
      "▁imput": 4296,
      "effici": 4297,
      "▁nationalité": 4298,
      "▁chapitre,": 4299,
      "2,": 4300,
      "ple": 4301,
      "▁négociation": 4302,
      "▁détaill": 4303,
      "▁contenti": 4304,
      "▁couver": 4305,
      "▁droit,": 4306,
      "▁décret,": 4307,
      "▁affili": 4308,
      "▁déplacement": 4309,
      "▁ait": 4310,
      "entend": 4311,
      "▁destination": 4312,
      "▁régulièrement": 4313,
      "▁d'organis": 4314,
      "▁anciens": 4315,
      "▁phra": 4316,
      "▁complè": 4317,
      "▁transporteur": 4318,
      "▁cap": 4319,
      "▁maladi": 4320,
      "▁rendus": 4321,
      "▁administratifs": 4322,
      "▁détenues": 4323,
      "▁constate": 4324,
      "▁gestionnaires": 4325,
      "▁nouvelles": 4326,
      "▁infraction": 4327,
      "es ;\r\n": 4328,
      "acc": 4329,
      "▁l'appel": 4330,
      "▁contribuable": 4331,
      "▁l'encontre": 4332,
      "fes": 4333,
      "▁emprun": 4334,
      "▁consommateur": 4335,
      "toc": 4336,
      "▁enquê": 4337,
      "▁fem": 4338,
      "itiative": 4339,
      "group": 4340,
      "▁d'imposition": 4341,
      "quisitions": 4342,
      "odrom": 4343,
      "▁nature,": 4344,
      "▁accords": 4345,
      "▁calculée": 4346,
      "▁suppléant": 4347,
      "▁coeffici": 4348,
      "tième": 4349,
      "▁économique,": 4350,
      "térieures": 4351,
      "▁signific": 4352,
      "▁cohér": 4353,
      "▁producteurs": 4354,
      "▁fiscalité": 4355,
      "▁méconn": 4356,
      "▁s'ex": 4357,
      "▁délégués": 4358,
      "▁composé": 4359,
      "▁fév": 4360,
      "▁donneur": 4361,
      "▁spécial": 4362,
      "▁cam": 4363,
      "▁prol": 4364,
      "▁médecine": 4365,
      "▁février": 4366,
      "▁locales": 4367,
      "▁notamment :\r\n": 4368,
      "▁2018": 4369,
      "▁modifi": 4370,
      "▁territoriales,": 4371,
      "▁versements": 4372,
      "▁normes": 4373,
      "▁prononcé": 4374,
      "▁fournisseur": 4375,
      "▁s'effec": 4376,
      "erté": 4377,
      "▁parce": 4378,
      "▁département,": 4379,
      "nov": 4380,
      "▁qu'après": 4381,
      "▁souscription": 4382,
      "▁l'enregistrement": 4383,
      "▁individuelle": 4384,
      "▁législatives": 4385,
      "▁commerciale": 4386,
      "▁modifié": 4387,
      "▁meu": 4388,
      "▁unité": 4389,
      "▁avocat": 4390,
      "pui": 4391,
      "▁métiers": 4392,
      "▁l'attestation": 4393,
      "▁dil": 4394,
      "▁dépass": 4395,
      "▁sièges": 4396,
      "▁obstacle": 4397,
      "atrice": 4398,
      "▁secrétariat": 4399,
      "▁dimin": 4400,
      "chéance": 4401,
      "▁subventions": 4402,
      "arc": 4403,
      "onor": 4404,
      "fessionn": 4405,
      "▁chapitre.\r\n": 4406,
      "▁communiquer": 4407,
      "act": 4408,
      "▁dérou": 4409,
      "▁maximal": 4410,
      "▁s'entend": 4411,
      "▁tribunaux": 4412,
      "▁comprennent": 4413,
      "▁interne": 4414,
      "▁l'élaboration": 4415,
      "▁nationaux": 4416,
      "▁spécialement": 4417,
      "soci": 4418,
      "▁access": 4419,
      "▁nationales": 4420,
      "▁donnant": 4421,
      "▁lien": 4422,
      "▁agrément": 4423,
      "▁répondant": 4424,
      "▁poursuit": 4425,
      "▁l'institution": 4426,
      "▁terrain": 4427,
      "▁exercé": 4428,
      "▁60": 4429,
      "région": 4430,
      "▁d'administration,": 4431,
      "▁l'unité": 4432,
      "▁force": 4433,
      "▁assujet": 4434,
      "apacités": 4435,
      "▁degré": 4436,
      "▁trés": 4437,
      "▁facil": 4438,
      "euille": 4439,
      "▁service,": 4440,
      "▁conformes": 4441,
      "▁européenne,": 4442,
      "▁civiles": 4443,
      "▁pharmaceuti": 4444,
      "occupation": 4445,
      "▁2°,": 4446,
      "▁d'aptitude": 4447,
      "▁durable": 4448,
      "el,": 4449,
      "▁l'aut": 4450,
      "▁2015": 4451,
      "propriét": 4452,
      "▁consentement": 4453,
      "▁l'urbanisme": 4454,
      "▁d'absence": 4455,
      "▁signé": 4456,
      "▁épreuves": 4457,
      "▁visant": 4458,
      "▁constaté": 4459,
      "▁indiquant": 4460,
      "▁sang": 4461,
      "▁régie": 4462,
      "▁participant": 4463,
      "▁effectuer": 4464,
      "▁postérieure": 4465,
      "▁détenteur": 4466,
      "élioration": 4467,
      "▁fréqu": 4468,
      "▁applicables.\r\n": 4469,
      "▁phrase": 4470,
      "▁cycle": 4471,
      "▁prolong": 4472,
      "▁bonne": 4473,
      "▁pénal": 4474,
      "ables,": 4475,
      "▁pensions": 4476,
      "▁assist": 4477,
      "▁attribuées": 4478,
      "▁résiliation": 4479,
      "aptation": 4480,
      "▁l'établissement,": 4481,
      "▁actu": 4482,
      "▁précédent,": 4483,
      "▁faveur": 4484,
      "▁maladies": 4485,
      "▁2009": 4486,
      "▁étudiants": 4487,
      "▁élu": 4488,
      "acte": 4489,
      "▁d'invalidité": 4490,
      "▁espèces": 4491,
      "▁fusion": 4492,
      "▁désignée": 4493,
      "▁initiale": 4494,
      "ivant": 4495,
      "▁régular": 4496,
      "▁volume": 4497,
      "75": 4498,
      "▁nationale,": 4499,
      "▁autorisée": 4500,
      "▁faute": 4501,
      "anch": 4502,
      "alisé": 4503,
      "▁examens": 4504,
      "-0": 4505,
      "▁l'inform": 4506,
      "▁indications": 4507,
      "▁résident": 4508,
      "▁maison": 4509,
      "▁émet": 4510,
      "▁arr": 4511,
      "arge": 4512,
      "▁donnent": 4513,
      "▁éligibles": 4514,
      "▁guadeloupe,": 4515,
      "égét": 4516,
      "▁bénéfices": 4517,
      "▁privés": 4518,
      "▁indiquée": 4519,
      "▁d'éch": 4520,
      "▁suppléants": 4521,
      "▁l'habitat": 4522,
      "▁deven": 4523,
      "itec": 4524,
      "▁exercices": 4525,
      "ue,": 4526,
      "oût": 4527,
      "▁d'intervention": 4528,
      "▁décide": 4529,
      "▁dépend": 4530,
      "▁médico-soci": 4531,
      "▁employeur": 4532,
      "chitec": 4533,
      "▁saisir": 4534,
      "▁d'habitation": 4535,
      "▁effective": 4536,
      "entiss": 4537,
      "24": 4538,
      "▁0,": 4539,
      "▁l'entrée": 4540,
      "sibilité": 4541,
      "▁dilig": 4542,
      "▁végét": 4543,
      "œuvre": 4544,
      "▁fiscal": 4545,
      "▁réparation": 4546,
      "▁l'évolution": 4547,
      "▁déléguer": 4548,
      "ortissement": 4549,
      "▁d'indemn": 4550,
      "▁commerce,": 4551,
      "▁fichier": 4552,
      "▁voir": 4553,
      "▁humaine": 4554,
      "vers": 4555,
      "▁généraux": 4556,
      "▁afférentes": 4557,
      "▁écrite": 4558,
      "br": 4559,
      "gar": 4560,
      "▁contrat,": 4561,
      "▁sauve": 4562,
      "▁d'insertion": 4563,
      "éti": 4564,
      "▁est,": 4565,
      "▁l'initiative": 4566,
      "▁d'év": 4567,
      "▁l'équipe": 4568,
      "▁professionnelle,": 4569,
      "servation": 4570,
      "cèdent": 4571,
      "-de-fr": 4572,
      "▁requises": 4573,
      "pect": 4574,
      "▁ordonnance": 4575,
      "▁sept": 4576,
      "▁guyane,": 4577,
      "▁d'énergie": 4578,
      "▁étranger": 4579,
      "▁s'est": 4580,
      "▁mineurs": 4581,
      "▁réglementaire": 4582,
      "▁créancier": 4583,
      "▁contentieux": 4584,
      "▁inscrites": 4585,
      "▁abs": 4586,
      "▁allou": 4587,
      "▁résulte": 4588,
      "▁entité": 4589,
      "▁\"\r\n": 4590,
      "siette": 4591,
      "▁parcours": 4592,
      "▁muni": 4593,
      "missions": 4594,
      "▁effet,": 4595,
      "professionn": 4596,
      "▁remplacé": 4597,
      "▁réputée": 4598,
      "▁mère": 4599,
      "▁réunit": 4600,
      "ource": 4601,
      "-17": 4602,
      "▁laboratoire": 4603,
      "▁intérêt": 4604,
      "▁pun": 4605,
      "cession": 4606,
      "▁patient": 4607,
      "▁court": 4608,
      "▁sites": 4609,
      "▁mus": 4610,
      "age.\r\n": 4611,
      "▁l'avant": 4612,
      "▁substitu": 4613,
      "▁compte,": 4614,
      "▁d'effet": 4615,
      "▁liberté": 4616,
      "▁experts": 4617,
      "▁transmise": 4618,
      "▁jury": 4619,
      "▁raisons": 4620,
      "rages": 4621,
      "ront": 4622,
      "ts,": 4623,
      "portation": 4624,
      "▁fixant": 4625,
      "▁nomination": 4626,
      "onci": 4627,
      "▁opé": 4628,
      "eté": 4629,
      "ettre": 4630,
      "▁statis": 4631,
      "▁l'identification": 4632,
      "us,": 4633,
      "▁existant": 4634,
      "▁seuls": 4635,
      "ién": 4636,
      "▁promotion": 4637,
      "▁visée": 4638,
      "▁150": 4639,
      "▁provisions": 4640,
      "▁assister": 4641,
      "▁constructions": 4642,
      "iement": 4643,
      "▁répondre": 4644,
      "▁portent": 4645,
      "▁195": 4646,
      "▁l'administrateur": 4647,
      "▁d'ouvrage": 4648,
      "▁regroup": 4649,
      "▁chau": 4650,
      "▁8°": 4651,
      "▁comporter": 4652,
      "▁ensemble": 4653,
      "▁étant": 4654,
      "▁inspec": 4655,
      "▁recour": 4656,
      "▁déterminer": 4657,
      "▁territorialement": 4658,
      "▁pharmacien": 4659,
      "▁rendre": 4660,
      "tension": 4661,
      "▁d'avoir": 4662,
      "▁l'entretien": 4663,
      "▁associé": 4664,
      "▁traitements": 4665,
      "▁propose": 4666,
      "▁imparti": 4667,
      "▁justice,": 4668,
      "eant": 4669,
      "▁plus-val": 4670,
      "anges": 4671,
      "▁maîtr": 4672,
      "▁pharmaciens": 4673,
      "▁administrateurs": 4674,
      "▁créanciers": 4675,
      "▁pourcentage": 4676,
      "▁publié": 4677,
      "▁couvr": 4678,
      "▁validation": 4679,
      "▁espaces": 4680,
      "▁collective": 4681,
      "plant": 4682,
      "▁interrégion": 4683,
      "▁personnalité": 4684,
      "▁affich": 4685,
      "▁navigation": 4686,
      "ony": 4687,
      "▁proxim": 4688,
      "▁exécutoire": 4689,
      "▁constituer": 4690,
      "▁juridictions": 4691,
      "▁grave": 4692,
      "▁puisse": 4693,
      "▁réassurance": 4694,
      "▁enti": 4695,
      "▁général,": 4696,
      "▁proposer": 4697,
      "▁comités": 4698,
      "▁termes": 4699,
      "▁langue": 4700,
      "onération": 4701,
      "tive,": 4702,
      "▁août": 4703,
      "▁budgétaire": 4704,
      "▁faculté": 4705,
      "▁vétérinaire": 4706,
      "▁d'études": 4707,
      "tra": 4708,
      "▁suff": 4709,
      "▁suivent": 4710,
      "▁directoire": 4711,
      "ages,": 4712,
      "▁cinéma": 4713,
      "-9": 4714,
      "sier": 4715,
      "▁protoc": 4716,
      "▁locataire": 4717,
      "▁dûment": 4718,
      "pre": 4719,
      "agi": 4720,
      "▁2010": 4721,
      "garde": 4722,
      "▁tre": 4723,
      "és.": 4724,
      "decies": 4725,
      "▁but": 4726,
      "▁thérapeu": 4727,
      "▁exercée": 4728,
      "▁équivalent": 4729,
      "▁clause": 4730,
      "▁assurant": 4731,
      "▁d'agriculture": 4732,
      "▁justification": 4733,
      "22": 4734,
      "▁question": 4735,
      "me,": 4736,
      "▁régions": 4737,
      "éreur": 4738,
      "lève": 4739,
      "antill": 4740,
      "▁constituent": 4741,
      "▁utilisation": 4742,
      "▁copropriét": 4743,
      "▁quelle": 4744,
      "rup": 4745,
      "▁l'établissement.\r\n": 4746,
      "▁portées": 4747,
      "▁effectivement": 4748,
      "▁fores": 4749,
      "▁red": 4750,
      "▁remplit": 4751,
      "▁candidature": 4752,
      "▁sportif": 4753,
      "vements": 4754,
      "▁l'origine": 4755,
      "▁agréées": 4756,
      "▁simple": 4757,
      "▁sauvegarde": 4758,
      "▁report": 4759,
      "▁limitée": 4760,
      "â": 4761,
      "▁forces": 4762,
      "atricul": 4763,
      "ales.\r\n": 4764,
      "iliation": 4765,
      "▁fiscale": 4766,
      "▁redevances": 4767,
      "▁besoin,": 4768,
      "▁section.\r\n": 4769,
      "angere": 4770,
      "▁l'aménagement": 4771,
      "itaire,": 4772,
      "▁situations": 4773,
      "▁dangere": 4774,
      "▁enquête": 4775,
      "▁d'incendie": 4776,
      "préciation": 4777,
      "▁structures": 4778,
      "▁attach": 4779,
      "▁métropolit": 4780,
      "▁hor": 4781,
      "▁milieu": 4782,
      "isé": 4783,
      "itées": 4784,
      "▁d'empê": 4785,
      "▁hypo": 4786,
      "▁étrangères": 4787,
      "▁d'outre-mer": 4788,
      "▁ladite": 4789,
      "▁flu": 4790,
      "▁d'opér": 4791,
      "atre": 4792,
      "▁était": 4793,
      "▁lui-même": 4794,
      "▁condamné": 4795,
      "elles,": 4796,
      "▁formalités": 4797,
      "▁principale": 4798,
      "▁notifié": 4799,
      "▁appareil": 4800,
      "▁d'action": 4801,
      "▁stagi": 4802,
      "▁prê": 4803,
      "▁d'informations": 4804,
      "▁sanitaires": 4805,
      "▁adressé": 4806,
      "▁ordonner": 4807,
      "▁troubles": 4808,
      "▁dev": 4809,
      "rection": 4810,
      "ultan": 4811,
      "▁simultan": 4812,
      "▁démar": 4813,
      "▁exécutif": 4814,
      "▁stationnement": 4815,
      "▁bass": 4816,
      "▁circonscription": 4817,
      "▁cohérence": 4818,
      "▁d'an": 4819,
      "oid": 4820,
      "▁s'agissant": 4821,
      "▁subordonnée": 4822,
      "truire": 4823,
      "▁d'infr": 4824,
      "▁constituée": 4825,
      "jus": 4826,
      "▁électronique,": 4827,
      "▁th": 4828,
      "▁(s": 4829,
      "▁196": 4830,
      "▁différence": 4831,
      "▁agissant": 4832,
      "▁mayotte,": 4833,
      "▁prorog": 4834,
      "tern": 4835,
      "▁cesse": 4836,
      "▁courir": 4837,
      "▁sixième": 4838,
      "▁intérieure": 4839,
      "▁électeurs": 4840,
      "▁chefs": 4841,
      "▁131-3": 4842,
      "ablir": 4843,
      "▁présenté": 4844,
      "ies,": 4845,
      "▁gauche": 4846,
      "ffic": 4847,
      "▁d'activités": 4848,
      "▁matéri": 4849,
      "▁réunions": 4850,
      "▁jeux": 4851,
      "▁seront": 4852,
      "occasionn": 4853,
      "▁l'étude": 4854,
      "▁liti": 4855,
      "▁destiné": 4856,
      "\"><": 4857,
      "▁membres,": 4858,
      "▁4.": 4859,
      "▁notamment,": 4860,
      "▁conclusions": 4861,
      "▁françaises": 4862,
      "endeur": 4863,
      "▁ajoutée": 4864,
      "▁l'audience": 4865,
      "▁offre": 4866,
      "ath": 4867,
      "▁2006": 4868,
      "▁certaine": 4869,
      "▁recueil": 4870,
      "▁quantité": 4871,
      "▁capacités": 4872,
      "▁destinataire": 4873,
      "▁définition": 4874,
      "▁mill": 4875,
      "oiss": 4876,
      "▁radiation": 4877,
      "▁masse": 4878,
      "▁mainten": 4879,
      "▁favorable": 4880,
      "▁d'aut": 4881,
      "▁départementaux": 4882,
      "▁propriétés": 4883,
      "▁sportive": 4884,
      "▁âg": 4885,
      "eteur": 4886,
      "▁réci": 4887,
      "▁b.": 4888,
      "▁secteurs": 4889,
      "▁recherches": 4890,
      "▁dévol": 4891,
      "▁prévoyance": 4892,
      "rage": 4893,
      "▁aussi": 4894,
      "▁contrain": 4895,
      "▁soutien": 4896,
      "▁subvention": 4897,
      "▁branche": 4898,
      "▁attestant": 4899,
      "▁rachat": 4900,
      "▁proximité": 4901,
      "▁confidenti": 4902,
      "▁prélèvements": 4903,
      "▁textes": 4904,
      "▁redevable": 4905,
      "▁représenter": 4906,
      "▁constatée": 4907,
      "▁vérifier": 4908,
      "▁nouvelle-calédonie,": 4909,
      "▁répert": 4910,
      "▁constatation": 4911,
      "▁siég": 4912,
      "▁engagement": 4913,
      "▁instruments": 4914,
      "▁exist": 4915,
      "▁2020": 4916,
      "▁entités": 4917,
      "forme": 4918,
      "▁défense,": 4919,
      "mption": 4920,
      "▁comprend :\r\n": 4921,
      "▁central": 4922,
      "▁d'achat": 4923,
      "▁l'autonomie": 4924,
      "▁remplir": 4925,
      "▁mouv": 4926,
      "▁l'artis": 4927,
      "▁chapitres": 4928,
      "▁reçoit": 4929,
      "tig": 4930,
      "▁prés": 4931,
      "ieux": 4932,
      "▁l'acc": 4933,
      "▁lié": 4934,
      "▁maires": 4935,
      "▁couverture": 4936,
      "troi": 4937,
      "▁national,": 4938,
      "▁détenus": 4939,
      "▁haut-commissaire": 4940,
      "▁énergétique": 4941,
      "▁droite": 4942,
      "▁ci-après,": 4943,
      "▁d'industrie": 4944,
      "sile": 4945,
      "21": 4946,
      "onde": 4947,
      "▁ache": 4948,
      "▁pertin": 4949,
      "▁géographique": 4950,
      "▁sortie": 4951,
      "▁accompagné": 4952,
      "▁atteint": 4953,
      "▁retard": 4954,
      "▁position": 4955,
      "▁maladie,": 4956,
      "▁investissements": 4957,
      "▁entraîne": 4958,
      "▁déterminés": 4959,
      "▁tiers,": 4960,
      "-rhin": 4961,
      "▁délim": 4962,
      "partie": 4963,
      "rovi": 4964,
      "-pomp": 4965,
      "▁récépissé": 4966,
      "▁interprofessionn": 4967,
      "acements": 4968,
      "▁ferrovi": 4969,
      "adémie": 4970,
      "▁quarante": 4971,
      "▁instances": 4972,
      "▁société,": 4973,
      "cool": 4974,
      "▁transformation": 4975,
      "▁télép": 4976,
      "▁régis": 4977,
      "▁clin": 4978,
      "▁l'instance": 4979,
      "▁dess": 4980,
      "▁vocation": 4981,
      "▁rup": 4982,
      "▁départ": 4983,
      "▁scolaire": 4984,
      "gén": 4985,
      "itant": 4986,
      "▁produire": 4987,
      "▁section,": 4988,
      "▁accordé": 4989,
      "▁allocations": 4990,
      "▁comportent": 4991,
      "▁élections": 4992,
      "▁l'an": 4993,
      "adic": 4994,
      "▁sélection": 4995,
      "ayant": 4996,
      "▁portef": 4997,
      "▁afférents": 4998,
      "▁satisfaire": 4999,
      "▁maîtrise": 5000,
      "uses": 5001,
      "▁visé": 5002,
      "▁tendant": 5003,
      "▁exploitation": 5004,
      "▁modifier": 5005,
      "-con": 5006,
      "▁danger": 5007,
      "5,": 5008,
      "▁incid": 5009,
      "onnes": 5010,
      "▁délit": 5011,
      "▁solde": 5012,
      "▁fabricant": 5013,
      "▁destruction": 5014,
      "▁l'actif": 5015,
      "▁insuffis": 5016,
      "venir": 5017,
      "ultés": 5018,
      "▁types": 5019,
      "▁sont,": 5020,
      "▁partie,": 5021,
      "▁réserves": 5022,
      "▁opposition": 5023,
      "▁vétérinaires": 5024,
      "▁lit": 5025,
      "▁directe": 5026,
      "▁écoles": 5027,
      "▁ans.": 5028,
      "▁hospitalier": 5029,
      "▁énumérées": 5030,
      "3,": 5031,
      "▁désigner": 5032,
      "▁combatt": 5033,
      "▁coefficient": 5034,
      "▁l'associ": 5035,
      "▁délibérant": 5036,
      "▁9°": 5037,
      "▁réduit": 5038,
      "▁désignées": 5039,
      "▁s'assure": 5040,
      "▁publics,": 5041,
      "▁autorisées": 5042,
      "▁seules": 5043,
      "▁proportion": 5044,
      "▁occasionn": 5045,
      "▁i.": 5046,
      "▁partielle": 5047,
      "▁valor": 5048,
      "▁recru": 5049,
      "▁pil": 5050,
      "▁près": 5051,
      "usé": 5052,
      "▁préfet,": 5053,
      "▁institué": 5054,
      "▁provenant": 5055,
      "▁destinée": 5056,
      "rière": 5057,
      "▁mach": 5058,
      "▁soix": 5059,
      "▁80": 5060,
      "▁l'approbation": 5061,
      "▁attribué": 5062,
      "▁forêt": 5063,
      "▁répertoire": 5064,
      "aie": 5065,
      "▁annuels": 5066,
      "▁mutuelle": 5067,
      "▁patients": 5068,
      "▁l'exonération": 5069,
      "▁l'environnement.\r\n": 5070,
      "s ;\r\n": 5071,
      "▁faites": 5072,
      "▁attribuée": 5073,
      "▁formule": 5074,
      "▁groupes": 5075,
      "▁caus": 5076,
      "▁non-res": 5077,
      "▁explo": 5078,
      "-s": 5079,
      "▁bateau": 5080,
      "▁réception.\r\n": 5081,
      "▁portefeuille": 5082,
      "que,": 5083,
      "▁hauteur": 5084,
      "▁guyane": 5085,
      "▁l'acheteur": 5086,
      "▁antérieurement": 5087,
      "▁multipl": 5088,
      "▁repr": 5089,
      "▁relation": 5090,
      "▁ly": 5091,
      "anat": 5092,
      "▁paris,": 5093,
      "▁conclue": 5094,
      "▁pacte": 5095,
      "▁souscrip": 5096,
      "▁comptes,": 5097,
      "▁environnementale": 5098,
      "▁monn": 5099,
      "▁entreprises,": 5100,
      "▁justificatives": 5101,
      "octroi": 5102,
      "▁locale": 5103,
      "▁exploitant": 5104,
      "▁requise": 5105,
      "▁réquisition": 5106,
      "▁conclus": 5107,
      "▁rupture": 5108,
      "accord": 5109,
      "idé": 5110,
      "▁modéré": 5111,
      "▁collecte": 5112,
      "▁travaux,": 5113,
      "▁handicapées": 5114,
      "▁manquements": 5115,
      "firm": 5116,
      "▁d'entrée": 5117,
      "▁politiques": 5118,
      "▁méthodes": 5119,
      "▁consenti": 5120,
      "▁prov": 5121,
      "▁concertation": 5122,
      "▁dernières": 5123,
      "viennent": 5124,
      "▁utilisé": 5125,
      "erf": 5126,
      "▁fil": 5127,
      "▁prennent": 5128,
      "▁poursuite": 5129,
      "▁violation": 5130,
      "▁performance": 5131,
      "▁l'ab": 5132,
      "▁révis": 5133,
      "▁l'exig": 5134,
      "entraî": 5135,
      "▁route": 5136,
      "▁considérés": 5137,
      "▁issus": 5138,
      "▁emp": 5139,
      "▁tém": 5140,
      "▁l'officier": 5141,
      "▁formation,": 5142,
      "▁pièce": 5143,
      "▁nullité": 5144,
      "astructures": 5145,
      "▁perception": 5146,
      "▁78": 5147,
      "▁tu": 5148,
      "▁rapporteur": 5149,
      "▁martinique": 5150,
      "isations": 5151,
      "▁n'y": 5152,
      "▁d'établissements": 5153,
      "▁joint": 5154,
      "▁soixante": 5155,
      "▁d'all": 5156,
      "▁détenir": 5157,
      "▁carb": 5158,
      "▁transmettre": 5159,
      "▁analy": 5160,
      "▁permettent": 5161,
      "▁valablement": 5162,
      "▁pap": 5163,
      "▁rente": 5164,
      "▁diplômes": 5165,
      "▁contenant": 5166,
      "▁convention,": 5167,
      "▁praticiens": 5168,
      "érieures": 5169,
      "▁s'effectue": 5170,
      "▁l'arrêt": 5171,
      "▁dates": 5172,
      "onction": 5173,
      "▁supp": 5174,
      "▁favoriser": 5175,
      "▁dress": 5176,
      "▁émissions": 5177,
      "▁l'emprun": 5178,
      "▁automatis": 5179,
      "duit": 5180,
      "▁participations": 5181,
      "▁bare": 5182,
      "▁continuité": 5183,
      "▁martinique,": 5184,
      "▁non-respect": 5185,
      "▁extrait": 5186,
      "▁”.\r\n": 5187,
      "▁double": 5188,
      "▁vit": 5189,
      "▁personne,": 5190,
      "▁prestataires": 5191,
      "▁vingt-qu": 5192,
      "▁composée": 5193,
      "▁international": 5194,
      "▁organes": 5195,
      "▁exemplaire": 5196,
      "▁évén": 5197,
      "1,": 5198,
      "▁prime": 5199,
      "▁chè": 5200,
      "enneté": 5201,
      "▁mém": 5202,
      "▁confi": 5203,
      "▁manifes": 5204,
      "▁fixer": 5205,
      "ante.\r\n": 5206,
      "▁intervenant": 5207,
      "inq": 5208,
      "▁post": 5209,
      "▁longue": 5210,
      "▁s'y": 5211,
      "▁établir": 5212,
      "ox": 5213,
      "térêts": 5214,
      "▁ém": 5215,
      "▁fin,": 5216,
      "▁biom": 5217,
      "▁constituées": 5218,
      "▁ouverts": 5219,
      "▁annuellement": 5220,
      "▁sap": 5221,
      "▁commise": 5222,
      "▁règle": 5223,
      "ubr": 5224,
      "▁repos": 5225,
      "ventaire": 5226,
      "▁ultérieure": 5227,
      "▁d'ann": 5228,
      "▁déposée": 5229,
      "▁l'image": 5230,
      "▁conventionn": 5231,
      "▁%.\r\n": 5232,
      "▁précédents": 5233,
      "▁annexes": 5234,
      "▁assembl": 5235,
      "▁prévisionnel": 5236,
      "▁d'immatriculation": 5237,
      "étiques": 5238,
      "▁renf": 5239,
      "3-1": 5240,
      "▁d'éducation": 5241,
      "▁l'acqu": 5242,
      "▁région,": 5243,
      "▁expresse": 5244,
      "▁essenti": 5245,
      "▁urg": 5246,
      "▁remet": 5247,
      "app": 5248,
      "▁passé": 5249,
      "▁enfant": 5250,
      "chiv": 5251,
      "tacles": 5252,
      "▁tourisme": 5253,
      "-v": 5254,
      "▁lou": 5255,
      "ruption": 5256,
      "▁série": 5257,
      "▁immeuble": 5258,
      "▁audit": 5259,
      "▁détenue": 5260,
      "▁complet": 5261,
      "sibles": 5262,
      "▁l'affaire": 5263,
      "▁administrations": 5264,
      "ph": 5265,
      "▁cessions": 5266,
      "partement": 5267,
      "▁2012": 5268,
      "tiennent": 5269,
      "▁mut": 5270,
      "▁social,": 5271,
      "▁entendu": 5272,
      "▁d'amende.\r\n": 5273,
      "3.": 5274,
      "▁dix-huit": 5275,
      "inés": 5276,
      "▁l'intervention": 5277,
      "ilibre": 5278,
      "▁collectifs": 5279,
      "▁licence": 5280,
      "▁audiovisuelle": 5281,
      "▁test": 5282,
      "▁client": 5283,
      "▁faciliter": 5284,
      "▁contraire,": 5285,
      "▁présentées": 5286,
      "plantation": 5287,
      "▁armes": 5288,
      "▁parties,": 5289,
      "▁quelcon": 5290,
      "▁assurent": 5291,
      "........": 5292,
      "▁déroulement": 5293,
      "-l": 5294,
      "▁desquelles": 5295,
      "ante,": 5296,
      "alog": 5297,
      "▁meille": 5298,
      "▁d'anim": 5299,
      "▁internationale": 5300,
      "▁s'eng": 5301,
      "▁an,": 5302,
      "▁autoriser": 5303,
      "▁individuelles": 5304,
      "▁difficultés": 5305,
      "rets": 5306,
      "▁doit,": 5307,
      "▁encore": 5308,
      "rant": 5309,
      "▁prép": 5310,
      "▁d'hébergement": 5311,
      "▁crimin": 5312,
      "emption": 5313,
      "▁apparaître": 5314,
      "▁simpl": 5315,
      "▁express": 5316,
      "▁civile,": 5317,
      "▁retour": 5318,
      "▁méconnaissance": 5319,
      "ote": 5320,
      "▁desquels": 5321,
      "▁reste": 5322,
      "▁naturels": 5323,
      "▁prononcées": 5324,
      "ticip": 5325,
      "▁conseil,": 5326,
      "5-1": 5327,
      "▁participent": 5328,
      "▁coopératives": 5329,
      "▁restitution": 5330,
      "ériment": 5331,
      "▁tenues": 5332,
      "▁réunion,": 5333,
      "▁sil": 5334,
      "▁délibère": 5335,
      "atéri": 5336,
      "▁recon": 5337,
      "▁d'habitations": 5338,
      "▁prévenir": 5339,
      "▁complète": 5340,
      "▁professionnel,": 5341,
      "▁immobiliers": 5342,
      "▁sports": 5343,
      "▁pourra": 5344,
      "▁interdiction": 5345,
      "▁candidatures": 5346,
      "▁dématéri": 5347,
      "onciation": 5348,
      "é.": 5349,
      "erm": 5350,
      "aux.\r\n": 5351,
      "▁d'asile": 5352,
      "▁l'aér": 5353,
      "isés": 5354,
      "▁homolog": 5355,
      "ions": 5356,
      "▁déclarant": 5357,
      "▁l'artisanat": 5358,
      "▁conférence": 5359,
      "8,": 5360,
      "▁biologie": 5361,
      "▁signal": 5362,
      "▁commercial": 5363,
      "▁statuant": 5364,
      "▁classe.\r\n": 5365,
      "▁global": 5366,
      "ties": 5367,
      "▁banc": 5368,
      "ative,": 5369,
      "▁mandats": 5370,
      "▁tableau :\r\n": 5371,
      "▁dévolues": 5372,
      "▁vingt-quatre": 5373,
      "▁défense.\r\n": 5374,
      "▁conditions,": 5375,
      "mél": 5376,
      "▁d'immeubles": 5377,
      "▁équipement": 5378,
      "▁aurait": 5379,
      "▁cassation": 5380,
      "31": 5381,
      "▁contient": 5382,
      "▁contradic": 5383,
      "▁nouveaux": 5384,
      "▁protocole": 5385,
      "▁délivrés": 5386,
      "▁l'assureur": 5387,
      "▁pharmacie": 5388,
      "gu": 5389,
      "▁pér": 5390,
      "▁l'option": 5391,
      "abor": 5392,
      "▁mois.": 5393,
      "▁monnaie": 5394,
      "▁conven": 5395,
      "▁d'hy": 5396,
      "▁ami": 5397,
      "</p><p>": 5398,
      "entissage": 5399,
      "▁pôle": 5400,
      "▁réel": 5401,
      "▁opérateur": 5402,
      "èvement": 5403,
      "▁nouvel": 5404,
      "▁l'appui": 5405,
      "▁cit": 5406,
      "▁utilisées": 5407,
      "▁conclure": 5408,
      "ition": 5409,
      "▁accident": 5410,
      "▁situées": 5411,
      "▁consulté": 5412,
      "▁clauses": 5413,
      "▁sceaux,": 5414,
      "▁localisation": 5415,
      "▁déclaré": 5416,
      "▁confisc": 5417,
      "▁habitants": 5418,
      "▁l'assiette": 5419,
      "▁primes": 5420,
      "diques": 5421,
      "▁suspendu": 5422,
      "▁qualifications": 5423,
      "▁resta": 5424,
      "▁consignations": 5425,
      "od": 5426,
      "uite": 5427,
      "▁d'enquête": 5428,
      "-de-france": 5429,
      "toire": 5430,
      "▁compagn": 5431,
      "▁article.": 5432,
      "▁figurent": 5433,
      "▁trim": 5434,
      "▁bou": 5435,
      "▁contrôle,": 5436,
      "▁assisté": 5437,
      "▁recrutement": 5438,
      "▁:": 5439,
      "▁l'équ": 5440,
      "▁l'obtention": 5441,
      "▁l'informatique": 5442,
      "▁d'entretien": 5443,
      "▁combattants": 5444,
      "▁d'opposition": 5445,
      "▁recherche,": 5446,
      "▁immatricul": 5447,
      "▁vérifications": 5448,
      "▁quand": 5449,
      "▁donnée": 5450,
      "▁pénal.\r\n": 5451,
      "▁licenc": 5452,
      "▁accordées": 5453,
      "▁considération": 5454,
      "▁recommandations": 5455,
      "▁écrites": 5456,
      "▁706": 5457,
      "▁sen": 5458,
      "▁note": 5459,
      "▁d'employ": 5460,
      "ification": 5461,
      "▁mair": 5462,
      "▁aérone": 5463,
      "▁l'accueil": 5464,
      "▁attribués": 5465,
      "▁source": 5466,
      "▁rendue": 5467,
      "sifs": 5468,
      "▁supplémentaires": 5469,
      "▁camp": 5470,
      "▁entrant": 5471,
      "▁simultanément": 5472,
      "▁dim": 5473,
      "▁liaison": 5474,
      "▁chez": 5475,
      "▁budget.\r\n": 5476,
      "gl": 5477,
      "▁détenu": 5478,
      "▁commande": 5479,
      "▁fixation": 5480,
      "▁établissant": 5481,
      "astructure": 5482,
      "▁légales": 5483,
      "▁agricole,": 5484,
      "thèse": 5485,
      "▁chargées": 5486,
      "▁s'op": 5487,
      "▁confiées": 5488,
      "▁servant": 5489,
      "▁représente": 5490,
      "▁presse": 5491,
      "▁d'opérations": 5492,
      "ier,": 5493,
      "▁personnes,": 5494,
      "tériel": 5495,
      "▁disposer": 5496,
      "▁0": 5497,
      "▁d'eur": 5498,
      "▁2,": 5499,
      "▁39": 5500,
      "▁communiquées": 5501,
      "▁signée": 5502,
      "▁consommation,": 5503,
      "▁appartient": 5504,
      "▁diminu": 5505,
      "▁ventes": 5506,
      "▁moteur": 5507,
      "▁anony": 5508,
      "-fem": 5509,
      "▁amél": 5510,
      "▁superf": 5511,
      "▁limit": 5512,
      "▁iii,": 5513,
      "▁d'urgence,": 5514,
      "▁services,": 5515,
      "▁technici": 5516,
      "▁confidentialité": 5517,
      "istor": 5518,
      "▁d'inc": 5519,
      "▁france.\r\n": 5520,
      "▁d'établir": 5521,
      "▁fiscales": 5522,
      "▁télé": 5523,
      "▁s'engage": 5524,
      "▁x": 5525,
      "▁chose": 5526,
      "▁l'effec": 5527,
      "▁disponibles": 5528,
      "▁fonctions,": 5529,
      "▁administrative,": 5530,
      "-b": 5531,
      "mée": 5532,
      "▁commune,": 5533,
      "poser": 5534,
      "▁commercialisation": 5535,
      "▁culturel": 5536,
      "▁priorité": 5537,
      "ressement": 5538,
      "▁correction": 5539,
      "▁silence": 5540,
      "▁éman": 5541,
      "▁conç": 5542,
      "▁commission,": 5543,
      "▁civils": 5544,
      "▁république,": 5545,
      "▁bateaux": 5546,
      "▁redressement": 5547,
      "orde": 5548,
      "onneur": 5549,
      "▁énoncées": 5550,
      "▁présentent": 5551,
      "▁fichiers": 5552,
      "▁onére": 5553,
      "▁collèges": 5554,
      "▁globale": 5555,
      "▁veill": 5556,
      "▁fraude": 5557,
      "34": 5558,
      "▁astre": 5559,
      "▁kil": 5560,
      "▁neuf": 5561,
      "▁munitions": 5562,
      "▁surv": 5563,
      "▁65": 5564,
      "▁jours,": 5565,
      "▁judiciaire.\r\n": 5566,
      "▁actionnaires": 5567,
      "▁poursuites": 5568,
      "▁auteurs": 5569,
      "▁relevé": 5570,
      "▁ressortissants": 5571,
      "oux": 5572,
      "iver": 5573,
      "▁soumettre": 5574,
      "dits": 5575,
      "▁bless": 5576,
      "▁congés": 5577,
      "▁routier": 5578,
      "▁suffrages": 5579,
      "▁41": 5580,
      "▁nécessité": 5581,
      "▁”,": 5582,
      "tanti": 5583,
      "▁l'affectation": 5584,
      "▁substanti": 5585,
      "▁ports": 5586,
      "sis": 5587,
      "▁défaill": 5588,
      "▁assimilés": 5589,
      "▁enseignants": 5590,
      "▁énumérés": 5591,
      "79": 5592,
      "atér": 5593,
      "▁gér": 5594,
      "utilis": 5595,
      "▁pénalité": 5596,
      "mention": 5597,
      "▁prenant": 5598,
      "▁abrog": 5599,
      "▁l'importance": 5600,
      "▁l'alimentation,": 5601,
      "▁accessoires": 5602,
      "▁paritaire": 5603,
      "▁arrête": 5604,
      "▁portu": 5605,
      "35": 5606,
      "▁racc": 5607,
      "▁constater": 5608,
      "▁d'équipement": 5609,
      "▁d'indemnisation": 5610,
      "▁onéreux": 5611,
      "uels": 5612,
      "ant.\r\n": 5613,
      "▁rét": 5614,
      "▁qualifiées": 5615,
      "▁cause,": 5616,
      "▁b,": 5617,
      "▁consommateurs": 5618,
      "▁étrangère": 5619,
      "▁lyon": 5620,
      "▁cou": 5621,
      "ées.": 5622,
      "▁histor": 5623,
      "▁travail ;\r\n": 5624,
      "▁dirigeants": 5625,
      "▁femmes": 5626,
      "novation": 5627,
      "/1": 5628,
      "isions": 5629,
      "▁pénal,": 5630,
      "▁90": 5631,
      "▁équivalentes": 5632,
      "▁concurrence,": 5633,
      "département": 5634,
      "▁marque": 5635,
      "▁contrat.\r\n": 5636,
      "▁saisit": 5637,
      "▁l'agriculture,": 5638,
      "▁obligatoirement": 5639,
      "▁d'ess": 5640,
      "▁conception": 5641,
      "▁hô": 5642,
      "ssant": 5643,
      "▁réglementaire.\r\n": 5644,
      "▁l'acquéreur": 5645,
      "/6": 5646,
      "rein": 5647,
      "▁inclu": 5648,
      "▁honor": 5649,
      "▁clos": 5650,
      "▁45": 5651,
      "▁partag": 5652,
      "▁demandé": 5653,
      "lation": 5654,
      "▁construire": 5655,
      "▁cinquante": 5656,
      "▁d'associ": 5657,
      "▁choisi": 5658,
      "▁expressément": 5659,
      "▁l'envoi": 5660,
      "▁d'assistance": 5661,
      "rece": 5662,
      "▁n'excède": 5663,
      "▁tran": 5664,
      "▁débat": 5665,
      "▁heur": 5666,
      "▁restric": 5667,
      "▁respecte": 5668,
      "▁s'assurer": 5669,
      "▁maîtres": 5670,
      "▁souhaite": 5671,
      "▁d'occupation": 5672,
      "▁clim": 5673,
      "▁participe": 5674,
      "▁agréée": 5675,
      "▁d'ab": 5676,
      "▁majeur": 5677,
      "▁dissolution": 5678,
      "ordement": 5679,
      "▁rais": 5680,
      "▁vente,": 5681,
      "30": 5682,
      "dom": 5683,
      "isent": 5684,
      "▁quit": 5685,
      "▁2000": 5686,
      "▁concernent": 5687,
      "▁requérant": 5688,
      "▁individuellement": 5689,
      "▁sportives": 5690,
      "▁assemblée": 5691,
      "▁tent": 5692,
      "▁déclarées": 5693,
      "▁44": 5694,
      "▁susmention": 5695,
      "▁spectacles": 5696,
      "▁\r\n": 5697,
      "▁rem": 5698,
      "▁communes,": 5699,
      "▁intervention": 5700,
      "▁utilisateurs": 5701,
      "▁mettent": 5702,
      "▁offres": 5703,
      "▁anticip": 5704,
      "▁d'acc": 5705,
      "▁approuvé": 5706,
      "▁d'arrêt": 5707,
      "▁statuer": 5708,
      "pore": 5709,
      "▁extérieur": 5710,
      "ceptation": 5711,
      "▁dépassement": 5712,
      "▁caution": 5713,
      "▁procès-verbaux": 5714,
      "▁forestière": 5715,
      "▁barème": 5716,
      "ine,": 5717,
      "▁n'ayant": 5718,
      "▁puissance": 5719,
      "▁pourv": 5720,
      "▁l'insertion": 5721,
      "▁téléph": 5722,
      "▁l'éduc": 5723,
      "▁fédérations": 5724,
      "▁quantités": 5725,
      "odi": 5726,
      "▁poid": 5727,
      "▁prélev": 5728,
      "▁i.\r\n": 5729,
      "onomie,": 5730,
      "▁équivalente": 5731,
      "▁volontaires": 5732,
      "ie.\r\n": 5733,
      "▁trimes": 5734,
      "▁française.\r\n": 5735,
      "▁voyag": 5736,
      "▁clients": 5737,
      "▁régl": 5738,
      "▁départementales": 5739,
      "▁électroniques,": 5740,
      "énergie,": 5741,
      "▁réduire": 5742,
      "▁sociale ;\r\n": 5743,
      "▁d'engagement": 5744,
      "▁très": 5745,
      "▁d'usage": 5746,
      "dive": 5747,
      "▁peti": 5748,
      "▁classées": 5749,
      "▁d'économie": 5750,
      "▁fai": 5751,
      "▁détail": 5752,
      "▁bassin": 5753,
      "ron": 5754,
      "iscipl": 5755,
      "▁publiée": 5756,
      "▁calend": 5757,
      "▁trésor": 5758,
      "vê": 5759,
      "▁permanent": 5760,
      "▁implant": 5761,
      "▁preneur": 5762,
      "▁prépond": 5763,
      "▁intro": 5764,
      "terr": 5765,
      "▁anti": 5766,
      "▁délivre": 5767,
      "▁valorisation": 5768,
      "▁loy": 5769,
      "preneur": 5770,
      "ospitalisation": 5771,
      "▁informer": 5772,
      "▁annexé": 5773,
      "▁commandant": 5774,
      "▁contradictoire": 5775,
      "▁den": 5776,
      "tel": 5777,
      "▁constituant": 5778,
      "▁prescrites": 5779,
      "uelles": 5780,
      "ération,": 5781,
      "▁décrit": 5782,
      "toral": 5783,
      "▁ii.": 5784,
      "▁opérationn": 5785,
      "▁d'entreprises": 5786,
      "/2013": 5787,
      "▁détient": 5788,
      "bles,": 5789,
      "▁servit": 5790,
      "▁marins": 5791,
      "▁transport,": 5792,
      "▁classés": 5793,
      "▁adhérents": 5794,
      "25": 5795,
      "▁municipaux": 5796,
      "▁subordonné": 5797,
      "▁char": 5798,
      "▁programmation": 5799,
      "▁dépasser": 5800,
      "▁antérieur": 5801,
      "▁restitu": 5802,
      "▁posses": 5803,
      "ommun": 5804,
      "▁titre.\r\n": 5805,
      "▁assorti": 5806,
      "▁syndicats": 5807,
      "▁postérieurement": 5808,
      "▁revê": 5809,
      "▁ville": 5810,
      "▁concernés.\r\n": 5811,
      "▁justifient": 5812,
      "▁confiscation": 5813,
      "tionnelle": 5814,
      "▁contribuer": 5815,
      "▁seuils": 5816,
      "▁préemption": 5817,
      "▁vendeur": 5818,
      "▁asser": 5819,
      "▁remplies": 5820,
      "▁budget,": 5821,
      "▁motivé": 5822,
      "▁éventuelles": 5823,
      "▁citoy": 5824,
      "▁trac": 5825,
      "▁sécurité,": 5826,
      "▁logement,": 5827,
      "▁retenues": 5828,
      "▁décéd": 5829,
      "▁gestion,": 5830,
      "▁223": 5831,
      "meture": 5832,
      "▁versé": 5833,
      "▁celui-ci,": 5834,
      "▁succ": 5835,
      "gn": 5836,
      "rédit": 5837,
      "▁pourr": 5838,
      "▁altern": 5839,
      "céder": 5840,
      "▁pertes": 5841,
      "▁gens": 5842,
      "▁décomp": 5843,
      "▁2008": 5844,
      "▁indépendant": 5845,
      "▁lyc": 5846,
      "▁l'air": 5847,
      "▁routière": 5848,
      "▁fluvi": 5849,
      "6,": 5850,
      "▁mort": 5851,
      "▁comprom": 5852,
      "▁l'équipement": 5853,
      "▁empê": 5854,
      "▁remettre": 5855,
      "▁gérer": 5856,
      "-dern": 5857,
      "7,": 5858,
      "▁domic": 5859,
      "▁recueilli": 5860,
      "▁incompati": 5861,
      "▁aménagements": 5862,
      "ersion": 5863,
      "▁d'intérêts": 5864,
      "▁perçues": 5865,
      "▁retenu": 5866,
      "▁inte": 5867,
      "ne,": 5868,
      "▁professionnelle.\r\n": 5869,
      "▁conserver": 5870,
      "▁incor": 5871,
      "▁pédagogique": 5872,
      "29": 5873,
      "4,": 5874,
      "▁sursis": 5875,
      "▁délits": 5876,
      "▁fixe,": 5877,
      "▁intéressant": 5878,
      "▁mécan": 5879,
      "▁auxili": 5880,
      "▁ray": 5881,
      "▁5.": 5882,
      "▁légale": 5883,
      "▁d'âge": 5884,
      "▁trimestre": 5885,
      "attement": 5886,
      "▁soumet": 5887,
      "▁l'hy": 5888,
      "▁figurer": 5889,
      "▁passagers": 5890,
      "▁familial": 5891,
      "-pompiers": 5892,
      "39": 5893,
      "▁contrepartie": 5894,
      "▁fermeture": 5895,
      "▁pé": 5896,
      "▁indirects": 5897,
      "▁exprimés": 5898,
      "origin": 5899,
      "▁croiss": 5900,
      "▁précitée": 5901,
      "▁cellu": 5902,
      "▁l'agriculture.\r\n": 5903,
      "▁autonom": 5904,
      "▁aérodrom": 5905,
      "▁partenaire": 5906,
      "▁vidé": 5907,
      "▁euros.\r\n": 5908,
      "▁scientifiques": 5909,
      "▁stratégie": 5910,
      "▁plateforme": 5911,
      "▁comprise": 5912,
      "▁indication": 5913,
      "▁traité": 5914,
      "▁premières": 5915,
      "▁commerce.\r\n": 5916,
      "▁2022": 5917,
      "▁échantill": 5918,
      "glom": 5919,
      "seignement": 5920,
      "ance.\r\n": 5921,
      "▁excède": 5922,
      "argement": 5923,
      "▁renseignement": 5924,
      "▁gardé": 5925,
      "▁périodique": 5926,
      "▁dommage": 5927,
      "▁psychi": 5928,
      "▁préfecture": 5929,
      "▁renfor": 5930,
      "▁l'effectif": 5931,
      "giè": 5932,
      "▁is": 5933,
      "▁transform": 5934,
      "▁communiqué": 5935,
      "▁impliqu": 5936,
      "▁jouissance": 5937,
      "▁punie": 5938,
      "▁solvabilité": 5939,
      "▁fournies": 5940,
      "▁sous-trait": 5941,
      "▁examin": 5942,
      "▁marin": 5943,
      "▁remplissent": 5944,
      "▁également,": 5945,
      "ize": 5946,
      "▁mén": 5947,
      "trales": 5948,
      "▁plus,": 5949,
      "▁d'empêchement": 5950,
      "u,": 5951,
      "yn": 5952,
      "préc": 5953,
      "▁cô": 5954,
      "▁assortie": 5955,
      "▁effectifs": 5956,
      "ichage": 5957,
      "▁autant": 5958,
      "▁organisée": 5959,
      "jonction": 5960,
      "▁d'as": 5961,
      "▁concéd": 5962,
      "▁noms": 5963,
      "▁utiliser": 5964,
      "▁comportement": 5965,
      "1-1": 5966,
      "tives,": 5967,
      "▁he": 5968,
      "alisés": 5969,
      "▁morale,": 5970,
      "▁d'employeurs": 5971,
      "airement": 5972,
      "▁actif": 5973,
      "▁analyse": 5974,
      "▁interdépartement": 5975,
      "▁rang": 5976,
      "lle,": 5977,
      "▁production,": 5978,
      "▁formulaire": 5979,
      "▁retirer": 5980,
      "▁déont": 5981,
      "▁d'administration.\r\n": 5982,
      "▁liquidateur": 5983,
      "▁rendues": 5984,
      "▁date,": 5985,
      "▁expérience": 5986,
      "▁bulletins": 5987,
      "▁raisonn": 5988,
      "▁prépondér": 5989,
      "▁formé": 5990,
      "▁contrôleur": 5991,
      "▁constatées": 5992,
      "▁suspendre": 5993,
      "propriation": 5994,
      "▁notic": 5995,
      "▁d'affectation": 5996,
      "▁inscrite": 5997,
      "porté": 5998,
      "▁vérifie": 5999,
      "▁l'analyse": 6000,
      "▁eau": 6001,
      "▁mutuelles": 6002,
      "▁envisage": 6003,
      "▁raccordement": 6004,
      "▁demandée": 6005,
      "▁industriel": 6006,
      "fficac": 6007,
      "▁d'euros": 6008,
      "▁asserment": 6009,
      "▁feu": 6010,
      "▁ant": 6011,
      "▁l'objet,": 6012,
      "▁civil,": 6013,
      "▁ci-dessus,": 6014,
      "▁succurs": 6015,
      "▁dette": 6016,
      "▁suivre": 6017,
      "▁l'élève": 6018,
      "ondissement": 6019,
      "▁négociations": 6020,
      "▁meubles": 6021,
      "▁lev": 6022,
      "ata": 6023,
      "▁prog": 6024,
      "idiscipl": 6025,
      "▁recev": 6026,
      "▁niveaux": 6027,
      "▁passage": 6028,
      "▁reconnue": 6029,
      "▁pluridiscipl": 6030,
      "▁disposant": 6031,
      "▁pourvoir": 6032,
      "▁servi": 6033,
      "tères": 6034,
      "▁refuser": 6035,
      "▁hospitaliers": 6036,
      "▁prét": 6037,
      "▁marqu": 6038,
      "▁territoriaux": 6039,
      "▁français,": 6040,
      "▁tarification": 6041,
      "▁coopérative": 6042,
      "▁viii": 6043,
      "▁indirectement,": 6044,
      "▁l'anci": 6045,
      "▁four": 6046,
      "▁seconde": 6047,
      "▁mandataires": 6048,
      "▁coordonnateur": 6049,
      "▁manifestation": 6050,
      "▁superficie": 6051,
      "▁d'ai": 6052,
      "▁indis": 6053,
      "▁financier,": 6054,
      "▁reconnues": 6055,
      "▁1978": 6056,
      "▁matériaux": 6057,
      "génie": 6058,
      "▁choisis": 6059,
      "lectr": 6060,
      "▁employés": 6061,
      "▁liée": 6062,
      "▁civile.\r\n": 6063,
      "▁garantissant": 6064,
      "▁téléc": 6065,
      "▁poids": 6066,
      "ertes": 6067,
      "▁proche": 6068,
      "▁mot": 6069,
      "▁représentant,": 6070,
      "opro": 6071,
      "▁modifiant": 6072,
      "omal": 6073,
      "▁bar": 6074,
      "▁mari": 6075,
      "▁adressées": 6076,
      "/2014": 6077,
      "▁possession": 6078,
      "bdom": 6079,
      "▁l'œuvre": 6080,
      "œuvres": 6081,
      "▁interventions": 6082,
      "bdomad": 6083,
      "▁tiennent": 6084,
      "▁grande": 6085,
      "▁génétique": 6086,
      "▁d'organismes": 6087,
      "▁emprunts": 6088,
      "▁par :\r\n": 6089,
      "▁commerciales": 6090,
      "oni": 6091,
      "▁foi": 6092,
      "▁radioac": 6093,
      "▁hebdomad": 6094,
      "▁d'us": 6095,
      "▁dossiers": 6096,
      "▁infrastructures": 6097,
      "▁tab": 6098,
      "▁impositions": 6099,
      "èrent": 6100,
      "20": 6101,
      "▁stric": 6102,
      "▁déclarer": 6103,
      "▁dépasse": 6104,
      "▁l'école": 6105,
      "▁uniquement": 6106,
      "▁servitudes": 6107,
      "▁dit": 6108,
      "▁d'interdiction": 6109,
      "▁répartis": 6110,
      "e.\r\n": 6111,
      "▁présum": 6112,
      "▁suppression": 6113,
      "49": 6114,
      "▁comptes.\r\n": 6115,
      "▁impôts.\r\n": 6116,
      "▁publiques,": 6117,
      "▁futuna,": 6118,
      "▁collabor": 6119,
      "▁assemblées": 6120,
      "▁personnelle": 6121,
      "▁décrets": 6122,
      "▁concernés,": 6123,
      "▁bis,": 6124,
      "cessibilité": 6125,
      "▁appareils": 6126,
      "▁paiement,": 6127,
      "▁3°,": 6128,
      "▁récidive": 6129,
      "rig": 6130,
      "▁pas,": 6131,
      "▁suit :\r\n": 6132,
      "▁licenciement": 6133,
      "te-": 6134,
      "▁limitation": 6135,
      "▁salariés,": 6136,
      "ram": 6137,
      "▁générale,": 6138,
      "▁chanti": 6139,
      "ir,": 6140,
      "▁département.\r\n": 6141,
      "▁l'appréciation": 6142,
      "▁devient": 6143,
      "orment": 6144,
      "▁d'identité": 6145,
      "obs": 6146,
      "utuna": 6147,
      "▁dispensés": 6148,
      "-et-f": 6149,
      "▁universitaire": 6150,
      "▁régularisation": 6151,
      "▁commettre": 6152,
      "▁s'im": 6153,
      "▁disponibilité": 6154,
      "-et-futuna": 6155,
      "▁concerné.\r\n": 6156,
      "▁territoriales.\r\n": 6157,
      "▁construction,": 6158,
      "▁transmettent": 6159,
      "▁déposé": 6160,
      "▁wallis-et-futuna": 6161,
      "▁d'ile": 6162,
      "▁r.": 6163,
      "▁avait": 6164,
      "▁affectées": 6165,
      "▁figure": 6166,
      "▁reçues": 6167,
      "▁l'indemnisation": 6168,
      "▁parcelles": 6169,
      "▁définitivement": 6170,
      "▁marché,": 6171,
      "chitecture": 6172,
      "▁consac": 6173,
      "endes": 6174,
      "▁créer": 6175,
      "▁convention.\r\n": 6176,
      "▁précédent.\r\n": 6177,
      "▁interrégional": 6178,
      "▁privées": 6179,
      "▁filiales": 6180,
      "▁indu": 6181,
      "▁remplissant": 6182,
      "▁nécessaire,": 6183,
      "▁maritime,": 6184,
      "▁do": 6185,
      "▁bonnes": 6186,
      "▁libération": 6187,
      "▁l'amélioration": 6188,
      "▁fixent": 6189,
      "▁légalement": 6190,
      "▁privée": 6191,
      "▁engagées": 6192,
      "▁syndicale": 6193,
      "sification": 6194,
      "▁réduite": 6195,
      "▁justificatifs": 6196,
      "▁hydr": 6197,
      "▁obtenus": 6198,
      "▁forestiers": 6199,
      "▁engins": 6200,
      "able.\r\n": 6201,
      "▁acquise": 6202,
      "▁organise": 6203,
      "dites": 6204,
      "▁délibérer": 6205,
      "▁initial": 6206,
      "▁perçus": 6207,
      "orée": 6208,
      "▁agences": 6209,
      "▁modes": 6210,
      "▁d'install": 6211,
      "▁acquises": 6212,
      "▁sanctionn": 6213,
      "▁l'énergie,": 6214,
      "endus": 6215,
      "▁finalité": 6216,
      "▁commission.\r\n": 6217,
      "▁renv": 6218,
      "▁terror": 6219,
      "▁chirurgi": 6220,
      "chives": 6221,
      "▁l'ouvrage": 6222,
      "▁s'ét": 6223,
      "▁diverses": 6224,
      "▁améli": 6225,
      "hom": 6226,
      "ables.\r\n": 6227,
      "▁visa": 6228,
      "▁d'état": 6229,
      "▁dépositaire": 6230,
      "▁adjoints": 6231,
      "▁code.": 6232,
      "▁capitaux": 6233,
      "▁reconnus": 6234,
      "▁payer": 6235,
      "▁fabriqu": 6236,
      "▁d'objec": 6237,
      "▁transpar": 6238,
      "▁demandeurs": 6239,
      "▁minimal": 6240,
      "▁échanges": 6241,
      "▁exclusif": 6242,
      "isées": 6243,
      "possibilité": 6244,
      "▁déclarée": 6245,
      "▁fia": 6246,
      "fficacité": 6247,
      "igibilité": 6248,
      "▁asses": 6249,
      "▁cadres": 6250,
      "▁majeurs": 6251,
      "▁d'arr": 6252,
      "▁(1)": 6253,
      "▁cult": 6254,
      "▁d'examen": 6255,
      "▁européen,": 6256,
      "▁principe": 6257,
      "▁classes": 6258,
      "▁l'anim": 6259,
      "▁majoré": 6260,
      "▁récup": 6261,
      "▁réputés": 6262,
      "▁papier": 6263,
      "▁correc": 6264,
      "▁d'empl": 6265,
      "▁serait": 6266,
      "dictions": 6267,
      "▁combus": 6268,
      "▁consulter": 6269,
      "fec": 6270,
      "ativement": 6271,
      "▁poll": 6272,
      "▁exécutoires": 6273,
      "▁cinématographique": 6274,
      "tuer": 6275,
      "▁d'après": 6276,
      "▁l'entreprise,": 6277,
      "▁consultatif": 6278,
      "▁popul": 6279,
      "régul": 6280,
      "▁saint-pierre-et-miquelon,": 6281,
      "▁addi": 6282,
      "▁instituée": 6283,
      "▁surfaces": 6284,
      "▁sapeurs": 6285,
      "▁l'outre-m": 6286,
      "▁l'utilis": 6287,
      "part": 6288,
      "▁susmentionn": 6289,
      "▁d'eux": 6290,
      "▁d'effec": 6291,
      "▁ouverte": 6292,
      "▁reçoivent": 6293,
      "▁plafonds": 6294,
      "▁stipulations": 6295,
      "▁plus-values": 6296,
      "-à": 6297,
      "▁péc": 6298,
      "▁prévoi": 6299,
      "▁marine": 6300,
      "▁service.\r\n": 6301,
      "▁boiss": 6302,
      "▁sapeurs-pompiers": 6303,
      "▁pécuni": 6304,
      "ament": 6305,
      "▁médicales": 6306,
      "▁comprendre": 6307,
      "▁pénale,": 6308,
      "▁2005": 6309,
      "▁expert": 6310,
      "▁assign": 6311,
      "▁statué": 6312,
      "▁dispense": 6313,
      "▁perçue": 6314,
      "▁coordonnées": 6315,
      "▁transactions": 6316,
      "▁termin": 6317,
      "▁émolu": 6318,
      "sive": 6319,
      "▁regis": 6320,
      "▁thé": 6321,
      "▁interdite": 6322,
      "▁l'intéressé,": 6323,
      "▁forestier": 6324,
      "▁dons": 6325,
      "▁l'imp": 6326,
      "▁versés": 6327,
      "▁moment,": 6328,
      "▁époux": 6329,
      "▁flot": 6330,
      "▁registres": 6331,
      "utes": 6332,
      "▁-": 6333,
      "▁sén": 6334,
      "▁dédu": 6335,
      "▁sujet": 6336,
      "▁conditions.\r\n": 6337,
      "▁admises": 6338,
      "▁immobilière": 6339,
      "▁criminelle": 6340,
      "▁antarc": 6341,
      "▁l'habilitation": 6342,
      "▁considérées": 6343,
      "▁d'obtenir": 6344,
      "▁l'avant-dern": 6345,
      "▁l'associé": 6346,
      "▁leg": 6347,
      "ité.\r\n": 6348,
      "▁administrateur": 6349,
      "▁l'assistance": 6350,
      "▁qualifiée": 6351,
      "▁simil": 6352,
      "▁australes": 6353,
      "▁l'emprunteur": 6354,
      "▁tabac": 6355,
      "▁rétention": 6356,
      "dire": 6357,
      "▁chim": 6358,
      "▁passe": 6359,
      "▁confirm": 6360,
      "▁france ;\r\n": 6361,
      "▁fournisseurs": 6362,
      "▁instructions": 6363,
      "▁d'équipements": 6364,
      "orum": 6365,
      "▁rep": 6366,
      "▁utilisant": 6367,
      "▁brut": 6368,
      "▁statutaires": 6369,
      "▁méthode": 6370,
      "gent": 6371,
      "▁quorum": 6372,
      "▁adminis": 6373,
      "▁distributeur": 6374,
      "▁potentiel": 6375,
      "iér": 6376,
      "▁pourvoi": 6377,
      "▁extra": 6378,
      "▁article ;\r\n": 6379,
      "▁nationale.\r\n": 6380,
      "▁budgét": 6381,
      "▁recourir": 6382,
      "oign": 6383,
      "▁d'auc": 6384,
      "▁permanence": 6385,
      "▁transaction": 6386,
      "▁tâ": 6387,
      "▁contractuels": 6388,
      "▁ach": 6389,
      "isse": 6390,
      "▁texte": 6391,
      "▁antarctiques": 6392,
      "tation,": 6393,
      "▁auteur": 6394,
      "▁acquisitions": 6395,
      "▁quinqu": 6396,
      "▁seulement": 6397,
      "▁option": 6398,
      "▁simplif": 6399,
      "▁l'émission": 6400,
      "▁administrative.\r\n": 6401,
      "▁conserve": 6402,
      "▁prud'": 6403,
      "▁âgées": 6404,
      "pan": 6405,
      "arch": 6406,
      "▁d'acqu": 6407,
      "▁financiers,": 6408,
      "ermin": 6409,
      "▁contac": 6410,
      "▁intention": 6411,
      "▁égard": 6412,
      "▁membres.\r\n": 6413,
      "▁concerné,": 6414,
      "-dentis": 6415,
      "▁celle-ci,": 6416,
      "précie": 6417,
      "▁prud'hom": 6418,
      "▁monu": 6419,
      "▁l'indice": 6420,
      "▁mentionnant": 6421,
      "▁hiér": 6422,
      "▁missions,": 6423,
      "▁retenus": 6424,
      "▁dériv": 6425,
      "▁pollution": 6426,
      "▁hiérarch": 6427,
      "sè": 6428,
      "▁remises": 6429,
      "▁biens,": 6430,
      "▁(abrogé)\r\n": 6431,
      "▁accessible": 6432,
      "▁interdictions": 6433,
      "▁entretien": 6434,
      "▁créé": 6435,
      "▁travaill": 6436,
      "▁accompli": 6437,
      "▁sav": 6438,
      "▁réh": 6439,
      "oth": 6440,
      "▁indicateurs": 6441,
      "▁alcool": 6442,
      "▁majorations": 6443,
      "▁immédiate": 6444,
      "avis": 6445,
      "▁gro": 6446,
      "▁l'échéance": 6447,
      "▁préciser": 6448,
      "▁d'expertise": 6449,
      "▁poursuivre": 6450,
      "▁issues": 6451,
      "▁réex": 6452,
      "▁excl": 6453,
      "▁appelé": 6454,
      "▁semaines": 6455,
      "▁alimentaires": 6456,
      "ug": 6457,
      "▁d'y": 6458,
      "▁plain": 6459,
      "▁d'heures": 6460,
      "▁reçus": 6461,
      "▁rattachement": 6462,
      "▁prétendre": 6463,
      "▁demande.": 6464,
      "▁décision,": 6465,
      "▁nonobs": 6466,
      "▁jours.\r\n": 6467,
      "▁personnel,": 6468,
      "▁aérienne": 6469,
      "▁mémoire": 6470,
      "▁restauration": 6471,
      "▁nonobstant": 6472,
      "▁sort": 6473,
      "▁préservation": 6474,
      "▁dépense": 6475,
      "▁modifiée": 6476,
      "tranger,": 6477,
      "▁sportifs": 6478,
      "▁automatisé": 6479,
      "▁d'instru": 6480,
      "▁aérien": 6481,
      "▁devenue": 6482,
      "▁notice": 6483,
      "▁enregistrement": 6484,
      "▁mose": 6485,
      "▁présentés": 6486,
      "▁l'étranger,": 6487,
      "▁71": 6488,
      "▁légiti": 6489,
      "▁fa": 6490,
      "▁d'inspection": 6491,
      "▁maintenir": 6492,
      "▁corse,": 6493,
      "▁succession": 6494,
      "▁thérapeutique": 6495,
      "alise": 6496,
      "▁adjud": 6497,
      "▁adresser": 6498,
      "▁adapté": 6499,
      "▁imposées": 6500,
      "▁final": 6501,
      "▁l'heure": 6502,
      "▁l'adoption": 6503,
      "▁intermédiaires": 6504,
      "▁pharmaceutiques": 6505,
      "art": 6506,
      "▁d'ir": 6507,
      "▁préavis": 6508,
      "▁64": 6509,
      "▁l'expérience": 6510,
      "▁celle-ci.\r\n": 6511,
      "▁proposé": 6512,
      "▁quoti": 6513,
      "▁primaire": 6514,
      "▁d'adaptation": 6515,
      "▁pluriannuel": 6516,
      "▁homologu": 6517,
      "▁calendrier": 6518,
      "▁dus": 6519,
      "▁l'emb": 6520,
      "▁conduit": 6521,
      "▁substitution": 6522,
      "▁communiqués": 6523,
      "▁éventuelle": 6524,
      "▁appropri": 6525,
      "ister": 6526,
      "▁baux": 6527,
      "▁3,": 6528,
      "▁37": 6529,
      "▁préfets": 6530,
      "iers,": 6531,
      "▁2001": 6532,
      "▁gravité": 6533,
      "aleur": 6534,
      "▁rôle": 6535,
      "▁ii.\r\n": 6536,
      "▁santé.": 6537,
      "▁limiter": 6538,
      "▁l'expert": 6539,
      "▁solliciter": 6540,
      "▁ordres": 6541,
      "at,": 6542,
      "▁d'académie": 6543,
      "▁située": 6544,
      "▁avise": 6545,
      "▁intéressées": 6546,
      "▁supérieur,": 6547,
      "▁reconnu": 6548,
      "▁d'objectifs": 6549,
      "▁lot": 6550,
      "▁2003": 6551,
      "▁statistiques": 6552,
      "36": 6553,
      "▁l'octroi": 6554,
      "▁rev": 6555,
      "▁défic": 6556,
      "▁d'implantation": 6557,
      "▁transférés": 6558,
      "▁soins,": 6559,
      "▁comprend,": 6560,
      "▁répondent": 6561,
      "▁internationaux": 6562,
      "▁d'admission": 6563,
      "-à-": 6564,
      "pan=\"": 6565,
      "encl": 6566,
      "▁annul": 6567,
      "▁durée,": 6568,
      "▁transferts": 6569,
      "▁concourant": 6570,
      "▁mairie": 6571,
      "table": 6572,
      "ités,": 6573,
      "▁d'exposition": 6574,
      "▁souscripteur": 6575,
      "▁ue": 6576,
      "▁l'esti": 6577,
      "▁fourni": 6578,
      "▁l'avance": 6579,
      "▁agricoles,": 6580,
      "oprotection": 6581,
      "▁sources": 6582,
      "▁l'ec": 6583,
      "▁fiche": 6584,
      "▁denrées": 6585,
      "▁mot :": 6586,
      "▁dettes": 6587,
      "adrement": 6588,
      "ilèg": 6589,
      "▁privilèg": 6590,
      "▁adaptée": 6591,
      "▁prorata": 6592,
      "▁identité": 6593,
      "▁dég": 6594,
      "▁enregistre": 6595,
      "▁spécialités": 6596,
      "▁mettant": 6597,
      "▁inclus": 6598,
      "▁lu": 6599,
      "▁active": 6600,
      "age ;\r\n": 6601,
      "▁santé ;\r\n": 6602,
      "▁l'administration,": 6603,
      "▁artisan": 6604,
      "isée": 6605,
      "▁personnalisée": 6606,
      "▁l'accident": 6607,
      "▁constitués": 6608,
      "▁crédit,": 6609,
      "▁bénéficié": 6610,
      "▁mensuel": 6611,
      "électr": 6612,
      "èce": 6613,
      "▁mensuelle": 6614,
      "▁(abrogé) ;\r\n": 6615,
      "▁s'exerce": 6616,
      "▁laiss": 6617,
      "iteur": 6618,
      "utés": 6619,
      "▁national.\r\n": 6620,
      "▁2011": 6621,
      "cendants": 6622,
      "▁épreuve": 6623,
      "▁enquêtes": 6624,
      "▁phot": 6625,
      "▁d'imp": 6626,
      "▁99": 6627,
      "▁déposer": 6628,
      "▁voix,": 6629,
      "▁électorale": 6630,
      "▁saint-barthélemy,": 6631,
      "ase": 6632,
      "ataire,": 6633,
      "▁charge,": 6634,
      "▁états": 6635,
      "▁transit": 6636,
      "▁confier": 6637,
      "▁verser": 6638,
      "▁d'allocations": 6639,
      "▁chargement": 6640,
      "▁formalité": 6641,
      "▁conversion": 6642,
      "▁(n": 6643,
      "▁limité": 6644,
      "▁dotations": 6645,
      "▁l'utilisateur": 6646,
      "entiels": 6647,
      "uissier": 6648,
      "giène": 6649,
      "4.": 6650,
      "▁décision.\r\n": 6651,
      "▁approbation": 6652,
      "▁substance": 6653,
      "▁sur :\r\n": 6654,
      "▁informée": 6655,
      "▁rappel": 6656,
      "▁l'ecole": 6657,
      "10": 6658,
      "▁nomencl": 6659,
      "▁général.\r\n": 6660,
      "▁%,": 6661,
      "▁disciplinaires": 6662,
      "ionnement": 6663,
      "▁d'ouvr": 6664,
      "▁mél": 6665,
      "▁objectif": 6666,
      "▁compagnie": 6667,
      "bit": 6668,
      "le,": 6669,
      "▁d'œuvres": 6670,
      "▁librement": 6671,
      "teinte": 6672,
      "▁vacance": 6673,
      "▁contestation": 6674,
      "95": 6675,
      "▁gérant": 6676,
      "▁(c": 6677,
      "▁décès,": 6678,
      "▁sangu": 6679,
      "▁millions": 6680,
      "réditation": 6681,
      "▁cultures": 6682,
      "ivée": 6683,
      "▁locataires": 6684,
      "▁renvoi": 6685,
      "▁biodi": 6686,
      "▁légaux": 6687,
      "▁l'acceptation": 6688,
      "▁départemental,": 6689,
      "▁précé": 6690,
      "▁celui-ci.\r\n": 6691,
      "▁mutation": 6692,
      "▁psychiatr": 6693,
      "▁auth": 6694,
      "demment": 6695,
      "▁intég": 6696,
      "▁es": 6697,
      "omè": 6698,
      "▁expériment": 6699,
      "▁conservées": 6700,
      "▁10°": 6701,
      "▁biodivers": 6702,
      "tur": 6703,
      "▁sit": 6704,
      "▁an.\r\n": 6705,
      "▁organisées": 6706,
      "▁produits,": 6707,
      "▁demandeur,": 6708,
      "▁motivée,": 6709,
      "▁combat": 6710,
      "▁aura": 6711,
      "▁essais": 6712,
      "▁investig": 6713,
      "oie": 6714,
      "▁path": 6715,
      "▁vois": 6716,
      "▁acteurs": 6717,
      "▁écoul": 6718,
      "▁exigées": 6719,
      "▁composant": 6720,
      "▁spécialisée": 6721,
      "let": 6722,
      "▁salaires": 6723,
      "▁reproduction": 6724,
      "▁enregistrées": 6725,
      "▁mouvements": 6726,
      "ogram": 6727,
      "▁établissements,": 6728,
      "▁propriétaire,": 6729,
      "▁d'emplois": 6730,
      ") :\r\n": 6731,
      "ys": 6732,
      "▁cong": 6733,
      "▁publiques.\r\n": 6734,
      "▁l'économie,": 6735,
      "▁appelés": 6736,
      "▁compatibles": 6737,
      "▁litige": 6738,
      "▁quotidi": 6739,
      "▁pond": 6740,
      "▁concub": 6741,
      "▁communs": 6742,
      "▁individuels": 6743,
      "▁bis.": 6744,
      "attente": 6745,
      "▁l'alimentation": 6746,
      "preuve": 6747,
      "▁croissance": 6748,
      "▁pluridisciplinaire": 6749,
      "anches": 6750,
      "▁à :\r\n": 6751,
      "ilance": 6752,
      "▁édic": 6753,
      "▁communale": 6754,
      "▁directes": 6755,
      "▁conservés": 6756,
      "▁conjointe": 6757,
      "▁adjoint": 6758,
      "50": 6759,
      "▁départements,": 6760,
      "▁refuse": 6761,
      "74": 6762,
      "romp": 6763,
      "ycl": 6764,
      "▁tiss": 6765,
      "▁l'inc": 6766,
      "▁mission,": 6767,
      "▁usages": 6768,
      "▁l'intégrité": 6769,
      "▁interminis": 6770,
      "▁l'univers": 6771,
      "▁publique ;\r\n": 6772,
      "▁l'intégralité": 6773,
      "▁chauff": 6774,
      "igr": 6775,
      "▁finance": 6776,
      "▁dérogations": 6777,
      "▁conjoint,": 6778,
      "▁marchandise": 6779,
      "▁journalière": 6780,
      "▁l'objec": 6781,
      "▁appos": 6782,
      "▁déclarés": 6783,
      "▁l'établissement ;\r\n": 6784,
      "▁conditionnement": 6785,
      "▁concessionnaire": 6786,
      "▁nucléaires": 6787,
      "▁détachement": 6788,
      "zième": 6789,
      "▁recons": 6790,
      "▁perce": 6791,
      "▁montagne": 6792,
      "▁dangereux": 6793,
      "▁référentiel": 6794,
      "▁compétente.\r\n": 6795,
      "▁prénoms,": 6796,
      "▁terrorisme": 6797,
      "▁plén": 6798,
      "▁portés": 6799,
      "▁pein": 6800,
      "▁2002": 6801,
      "▁constatés": 6802,
      "▁crime": 6803,
      "▁lignes": 6804,
      "▁automatique": 6805,
      "▁cohésion": 6806,
      "▁constatant": 6807,
      "▁irrégul": 6808,
      "aign": 6809,
      "▁enseignements": 6810,
      "▁rubr": 6811,
      "▁déclare": 6812,
      "▁âgé": 6813,
      "▁prêteur": 6814,
      "▁p.": 6815,
      "▁norme": 6816,
      "▁l'arr": 6817,
      "▁diffus": 6818,
      "▁documentation": 6819,
      "▁précédemment": 6820,
      "oque": 6821,
      "▁conciliation": 6822,
      "▁connex": 6823,
      "▁paiements": 6824,
      "▁étude": 6825,
      "▁apports": 6826,
      "▁conseil.\r\n": 6827,
      "▁organisé": 6828,
      "▁exemp": 6829,
      "▁urbaine": 6830,
      "inésit": 6831,
      "hô": 6832,
      "icité": 6833,
      "▁sont :\r\n": 6834,
      "olue": 6835,
      "▁franch": 6836,
      "▁organisatrice": 6837,
      "▁l'hébergement": 6838,
      "▁d'hospitalisation": 6839,
      "▁contravention": 6840,
      "dule": 6841,
      "▁consultations": 6842,
      "tion,": 6843,
      "▁compéti": 6844,
      "▁récol": 6845,
      "▁préserv": 6846,
      "▁rectification": 6847,
      "▁théor": 6848,
      "▁payeur": 6849,
      "▁précisent": 6850,
      "▁exploitations": 6851,
      "▁€.\r\n": 6852,
      "▁bases": 6853,
      "▁dénomm": 6854,
      "▁statistique": 6855,
      "▁manifestement": 6856,
      "▁prévisions": 6857,
      "▁qualifié": 6858,
      "▁électorales": 6859,
      "▁provoqu": 6860,
      "lig": 6861,
      "▁société.\r\n": 6862,
      "▁périodic": 6863,
      "uits": 6864,
      "version": 6865,
      "▁engagée": 6866,
      "▁recueille": 6867,
      "▁mobilières": 6868,
      "▁médiateur": 6869,
      "▁dimension": 6870,
      "33": 6871,
      "▁enche": 6872,
      "▁process": 6873,
      "▁avis,": 6874,
      "▁habilitées": 6875,
      "▁indépendants": 6876,
      "▁voyage": 6877,
      "itude": 6878,
      "▁compétente,": 6879,
      "▁suspen": 6880,
      "provis": 6881,
      "▁industriels": 6882,
      "▁prénoms": 6883,
      "▁envelopp": 6884,
      "turation": 6885,
      "▁disc": 6886,
      "▁locatifs": 6887,
      "▁livret": 6888,
      "▁européenne.\r\n": 6889,
      "▁requê": 6890,
      "▁principales": 6891,
      "▁déplacements": 6892,
      "▁manifestations": 6893,
      "▁session": 6894,
      "▁retiré": 6895,
      "▁laboratoires": 6896,
      "▁domicili": 6897,
      "▁monuments": 6898,
      "▁démission": 6899,
      "▁format": 6900,
      "▁formée": 6901,
      "▁pénalités": 6902,
      "▁œuvre,": 6903,
      "-cinq": 6904,
      "▁l'employeur,": 6905,
      "▁4°,": 6906,
      "▁cab": 6907,
      "▁émises": 6908,
      "▁avances": 6909,
      "éments": 6910,
      "▁débats": 6911,
      "▁expédi": 6912,
      "▁l'admission": 6913,
      "▁porteur": 6914,
      "▁graves": 6915,
      "▁pharmaceutique": 6916,
      "▁de :\r\n": 6917,
      "▁suivie": 6918,
      "▁l'épreuve": 6919,
      "/td><td><": 6920,
      "▁recherch": 6921,
      "▁exposés": 6922,
      "▁inspecteurs": 6923,
      "mas": 6924,
      "▁réels": 6925,
      "ocats": 6926,
      "▁effectue": 6927,
      "▁facture": 6928,
      "▁contrôlée": 6929,
      "▁semaine": 6930,
      "▁lucr": 6931,
      "▁apporter": 6932,
      "versement": 6933,
      "▁redevables": 6934,
      "▁acquérir": 6935,
      "ner": 6936,
      "trie": 6937,
      "▁tac": 6938,
      "astr": 6939,
      "avor": 6940,
      "▁cessionnaire": 6941,
      "▁défavor": 6942,
      "▁l'accompagnement": 6943,
      "▁comprises": 6944,
      "▁dénommé": 6945,
      "▁l'opposition": 6946,
      "▁foyer": 6947,
      "▁cocon": 6948,
      "▁arrêtée": 6949,
      "▁associées": 6950,
      "▁résolution,": 6951,
      "recevabilité": 6952,
      "-in": 6953,
      "kinésit": 6954,
      "ique.\r\n": 6955,
      "▁s'ap": 6956,
      "▁délivrées": 6957,
      "▁garantis": 6958,
      "▁imposable": 6959,
      "▁universitaires": 6960,
      "▁désaccord": 6961,
      "▁cocontrac": 6962,
      "▁l'us": 6963,
      "▁régional,": 6964,
      "▁territoriale,": 6965,
      "▁livre,": 6966,
      "▁contribue": 6967,
      "▁éventuels": 6968,
      "▁d'office,": 6969,
      "▁contrôler": 6970,
      "▁contraintes": 6971,
      "▁sociétés,": 6972,
      "▁conservatoire": 6973,
      "▁numériques": 6974,
      "▁d'amélioration": 6975,
      "▁attachés": 6976,
      "▁boissons": 6977,
      "▁grosses": 6978,
      "▁processus": 6979,
      "cédant": 6980,
      "▁ans ;\r\n": 6981,
      "▁procédure,": 6982,
      "▁placements": 6983,
      "▁adaptées": 6984,
      "▁proposées": 6985,
      "▁biomé": 6986,
      "▁discr": 6987,
      "▁informent": 6988,
      "▁renonc": 6989,
      "porteurs": 6990,
      "ents,": 6991,
      "ertissement": 6992,
      "▁réquisitions": 6993,
      "▁l'inventaire": 6994,
      "▁informatique": 6995,
      "▁conformer": 6996,
      "▁constitutive": 6997,
      "▁l'honneur": 6998,
      "▁déposées": 6999,
      "▁maisons": 7000,
      "▁honoraires": 7001,
      "▁s'entendent": 7002,
      "ufr": 7003,
      "▁invalidité": 7004,
      "▁inscriptions": 7005,
      "▁nécessités": 7006,
      "▁activité,": 7007,
      "▁signification": 7008,
      "07": 7009,
      "andement": 7010,
      "sir": 7011,
      "▁commandement": 7012,
      "▁logicie": 7013,
      "▁qualifi": 7014,
      "▁spécialisé": 7015,
      "▁cesser": 7016,
      "▁couvrir": 7017,
      "▁hypoth": 7018,
      "▁d'effectuer": 7019,
      "23": 7020,
      "94": 7021,
      "omolog": 7022,
      "▁serment": 7023,
      "▁âgés": 7024,
      "▁ferroviaire": 7025,
      "▁d'aides": 7026,
      "▁arrêté,": 7027,
      "▁exigible": 7028,
      "▁apporte": 7029,
      "▁saint-martin,": 7030,
      "9,": 7031,
      "▁venti": 7032,
      "▁atteintes": 7033,
      "▁siéger": 7034,
      "▁événements": 7035,
      "▁prévoient": 7036,
      "ctu": 7037,
      "▁territoire,": 7038,
      "▁85": 7039,
      "▁phyt": 7040,
      "▁recueillir": 7041,
      "▁hebdomadaire": 7042,
      "▁nomenclature": 7043,
      "▁l'op": 7044,
      "▁subi": 7045,
      "▁6.": 7046,
      "▁destinataires": 7047,
      "▁électriques": 7048,
      "▁officier": 7049,
      "▁respectent": 7050,
      "▁allocation": 7051,
      "▁télécommun": 7052,
      "▁d'ile-de-france": 7053,
      "pecteur": 7054,
      "▁concernée,": 7055,
      "▁transports,": 7056,
      "▁condamnée": 7057,
      "▁l'emploi,": 7058,
      "▁ci-dessus.\r\n": 7059,
      "▁accessibles": 7060,
      "▁quelconque": 7061,
      "pens": 7062,
      "▁sinis": 7063,
      "▁traf": 7064,
      "▁recen": 7065,
      "▁l'étendue": 7066,
      "▁elle-même": 7067,
      "▁spéciaux": 7068,
      "▁responsabilités": 7069,
      "...": 7070,
      "▁l'énergie.\r\n": 7071,
      "▁réclamations": 7072,
      "▁therm": 7073,
      "▁indispens": 7074,
      "▁trafic": 7075,
      "▁avocats": 7076,
      "▁mandat,": 7077,
      "▁d'établissement,": 7078,
      "▁accomplis": 7079,
      "▁parentale": 7080,
      "▁scell": 7081,
      "▁pluriannuelle": 7082,
      "▁cur": 7083,
      "▁l'occup": 7084,
      "inaire,": 7085,
      "▁méd": 7086,
      "urs,": 7087,
      "▁univer": 7088,
      "▁réin": 7089,
      "▁réprim": 7090,
      "▁inex": 7091,
      "▁factures": 7092,
      "▁possè": 7093,
      "▁chirurgie": 7094,
      "▁d'autonomie": 7095,
      "▁78-17": 7096,
      "▁universe": 7097,
      "▁réalise": 7098,
      "▁vous": 7099,
      "▁commence": 7100,
      "▁droit.\r\n": 7101,
      "▁délai.\r\n": 7102,
      "▁évolu": 7103,
      "2-2": 7104,
      "▁sexe": 7105,
      "ultes": 7106,
      "alisées": 7107,
      "▁sociale.": 7108,
      "▁réception.": 7109,
      "▁correspondants": 7110,
      "obilisation": 7111,
      "identifier": 7112,
      "▁d'outre-mer,": 7113,
      "▁amiable": 7114,
      "▁téléphon": 7115,
      "provisionnement": 7116,
      "jours": 7117,
      "▁dédi": 7118,
      "▁alién": 7119,
      "▁non,": 7120,
      "▁corpore": 7121,
      "▁partenaires": 7122,
      "▁eff": 7123,
      "égalité": 7124,
      "▁d'évalu": 7125,
      "▁l'habitation,": 7126,
      "▁disponible": 7127,
      "▁l'objectif": 7128,
      "▁46": 7129,
      "▁fonds,": 7130,
      "atif,": 7131,
      "▁signe": 7132,
      "▁perçu": 7133,
      "▁justice.\r\n": 7134,
      "▁exercice,": 7135,
      "▁grands": 7136,
      "▁complété": 7137,
      "▁exécuter": 7138,
      "quac": 7139,
      "▁tri": 7140,
      "▁salles": 7141,
      "▁horaire": 7142,
      "▁cellules": 7143,
      "▁enchères": 7144,
      "14": 7145,
      "▁couvert": 7146,
      "▁superv": 7147,
      "▁clas": 7148,
      "▁courant": 7149,
      "▁résidant": 7150,
      "▁131-2": 7151,
      "▁intermédiaire": 7152,
      "▁métropolitain": 7153,
      "▁abrogeant": 7154,
      "▁tâches": 7155,
      "▁quinquies": 7156,
      "bile": 7157,
      "▁mobile": 7158,
      "▁s'ac": 7159,
      "▁apportées": 7160,
      "▁provenance": 7161,
      "side": 7162,
      "▁résistance": 7163,
      "▁phase": 7164,
      "▁jour,": 7165,
      "▁d'affec": 7166,
      "▁d'appel,": 7167,
      "▁familiale": 7168,
      "▁septième": 7169,
      "▁indépendamment": 7170,
      "▁compatibilité": 7171,
      "▁hôpit": 7172,
      "▁fonctions.\r\n": 7173,
      "▁placée": 7174,
      "▁justifié": 7175,
      "▁recensement": 7176,
      "▁applicables,": 7177,
      "▁correspondance": 7178,
      "▁applicable.\r\n": 7179,
      "▁haut-rhin": 7180,
      "▁présidée": 7181,
      "▁d'animaux": 7182,
      "▁voyageurs": 7183,
      "▁isol": 7184,
      "▁strictement": 7185,
      "▁technolog": 7186,
      "▁d'engag": 7187,
      "▁l'environnement ;\r\n": 7188,
      "▁électronique.\r\n": 7189,
      "▁l'industrie": 7190,
      "▁successi": 7191,
      "▁essentielles": 7192,
      "étermin": 7193,
      "▁toujours": 7194,
      "▁cep": 7195,
      "sionnaires": 7196,
      "▁l'électricité": 7197,
      "▁prescrire": 7198,
      "▁habilitée": 7199,
      "▁l'avant-dernier": 7200,
      "ôt": 7201,
      "▁n'en": 7202,
      "▁région.\r\n": 7203,
      "▁collectives": 7204,
      "▁électrique": 7205,
      "▁d'adhésion": 7206,
      "▁bas-rhin": 7207,
      "▁d'installations": 7208,
      "▁combusti": 7209,
      "▁marge": 7210,
      "▁ens": 7211,
      "▁jeu": 7212,
      "ades": 7213,
      "▁héri": 7214,
      "▁l'extérieur": 7215,
      "▁interromp": 7216,
      "▁guerre,": 7217,
      "▁couverts": 7218,
      "▁faible": 7219,
      "▁aid": 7220,
      "▁l'infirm": 7221,
      "▁d'etat.": 7222,
      "/ce": 7223,
      "is,": 7224,
      "▁outi": 7225,
      "iert": 7226,
      "▁biologiques": 7227,
      "▁2023": 7228,
      "▁l'entrepreneur": 7229,
      "▁campagne": 7230,
      "▁ix": 7231,
      "▁viv": 7232,
      "oport": 7233,
      "▁d'accident": 7234,
      "▁accorder": 7235,
      "▁capitaine": 7236,
      "▁132-1": 7237,
      "▁11°": 7238,
      "▁scientifique,": 7239,
      "▁assesseurs": 7240,
      "tage": 7241,
      "▁c,": 7242,
      "imination": 7243,
      "▁déclaration,": 7244,
      "▁exiger": 7245,
      "▁ouvrant": 7246,
      "▁justifications": 7247,
      "▁retirée": 7248,
      "▁intégralement": 7249,
      "▁750": 7250,
      "▁administ": 7251,
      "techn": 7252,
      "ager": 7253,
      "▁dispar": 7254,
      "▁servir": 7255,
      "▁seize": 7256,
      "▁l'ordonnateur": 7257,
      "▁juridiques": 7258,
      "▁l'équilibre": 7259,
      "▁informés": 7260,
      "▁signataire": 7261,
      "▁exclusive": 7262,
      "▁jeunesse": 7263,
      "▁filiale": 7264,
      "▁ensuite": 7265,
      "onces": 7266,
      "arb": 7267,
      "▁régi": 7268,
      "ateurs,": 7269,
      "▁travail.": 7270,
      "▁manqu": 7271,
      "▁engagés": 7272,
      "▁imposer": 7273,
      "▁formuler": 7274,
      "▁bancaire": 7275,
      "▁astrein": 7276,
      "▁contraires": 7277,
      "sséd": 7278,
      "▁préfet.\r\n": 7279,
      "▁publics.\r\n": 7280,
      "▁expertise": 7281,
      "▁conjoints": 7282,
      "▁schémas": 7283,
      "▁recueillies": 7284,
      "▁biomédec": 7285,
      "▁concernée.\r\n": 7286,
      "▁indivis": 7287,
      "▁courrier": 7288,
      "▁lots": 7289,
      "09": 7290,
      "az": 7291,
      "▁adh": 7292,
      "▁contrôle.\r\n": 7293,
      "▁transports.\r\n": 7294,
      "▁projet,": 7295,
      "▁surveillance,": 7296,
      "▁juges": 7297,
      "▁perçoit": 7298,
      "▁adopté": 7299,
      "▁compatible": 7300,
      "▁consécutifs": 7301,
      "▁rétablissement": 7302,
      "1-2": 7303,
      "onnements": 7304,
      "▁d'import": 7305,
      "▁affectée": 7306,
      "▁entendre": 7307,
      "▁casier": 7308,
      "▁l'audition": 7309,
      "▁révél": 7310,
      "▁incombe": 7311,
      "br/": 7312,
      "▁thérapeutiques": 7313,
      "▁renforc": 7314,
      "▁concubin": 7315,
      "ow": 7316,
      "▁extérieures": 7317,
      "▁l'investissement": 7318,
      "▁d'appréci": 7319,
      "▁l'imposition": 7320,
      "▁suspendue": 7321,
      "▁communiquée": 7322,
      "▁sollicite": 7323,
      "▁passible": 7324,
      "▁d'enf": 7325,
      "▁synthèse": 7326,
      "▁seraient": 7327,
      "▁spécialisés": 7328,
      "▁communautés": 7329,
      "▁commenc": 7330,
      "▁ancien": 7331,
      "▁(d": 7332,
      "▁spéciales": 7333,
      "▁envisagée": 7334,
      "▁emporte": 7335,
      "▁savoir": 7336,
      "▁périodicité": 7337,
      "▁gen": 7338,
      "▁supérieures": 7339,
      "▁compétent,": 7340,
      "▁rapp": 7341,
      "▁récapit": 7342,
      "▁satisfont": 7343,
      "▁élaboré": 7344,
      "▁sci": 7345,
      "▁exter": 7346,
      "▁finalités": 7347,
      "▁38": 7348,
      "▁indétermin": 7349,
      "▁intéressé": 7350,
      "▁intéressée": 7351,
      "▁appropriées": 7352,
      "▁incidences": 7353,
      "kinésithérapeu": 7354,
      "-kinésithérapeu": 7355,
      "▁origin": 7356,
      "onau": 7357,
      "▁définir": 7358,
      "alisations": 7359,
      "▁produit,": 7360,
      "▁nécessite": 7361,
      "▁internes": 7362,
      "▁âge": 7363,
      "▁chèque": 7364,
      "▁heure": 7365,
      "▁d'art": 7366,
      "▁accomplir": 7367,
      "▁scolaires": 7368,
      "-mêmes": 7369,
      "▁suffisant": 7370,
      "▁détenteurs": 7371,
      "▁quote-": 7372,
      "▁autonome": 7373,
      "erre": 7374,
      "▁personnellement": 7375,
      "formes": 7376,
      "▁européens": 7377,
      "▁correspondent": 7378,
      "▁l'affichage": 7379,
      "▁communautaire": 7380,
      "trice": 7381,
      "▁bour": 7382,
      "▁publiés": 7383,
      "▁pénale.\r\n": 7384,
      "▁communiquent": 7385,
      "▁internationales": 7386,
      "▁posséd": 7387,
      "▁encourent": 7388,
      "▁proportionnelle": 7389,
      "▁c.": 7390,
      "▁édit": 7391,
      "▁naturelle": 7392,
      "▁examine": 7393,
      "▁borde": 7394,
      "▁accéder": 7395,
      "▁droits,": 7396,
      "▁l'ép": 7397,
      "▁demeurent": 7398,
      "▁formulée": 7399,
      "▁cédant": 7400,
      "▁entraînant": 7401,
      "▁parque": 7402,
      "▁76": 7403,
      "▁participants": 7404,
      "▁d'enc": 7405,
      "▁particulier,": 7406,
      "▁machine": 7407,
      "▁d'essai": 7408,
      "▁d'identifier": 7409,
      "▁l'architecture": 7410,
      "ect": 7411,
      "▁conditionn": 7412,
      "▁précise,": 7413,
      "▁mainlev": 7414,
      "▁maritime.\r\n": 7415,
      "▁invoqu": 7416,
      "▁d'éléments": 7417,
      "▁prolongation": 7418,
      "cheurs": 7419,
      "▁renonciation": 7420,
      "▁d'aér": 7421,
      "▁porteurs": 7422,
      "▁intervenue": 7423,
      "▁démol": 7424,
      "▁municipale": 7425,
      "conn": 7426,
      "omb": 7427,
      "▁pollu": 7428,
      "bilités": 7429,
      "▁l'achèvement": 7430,
      "▁réclamation": 7431,
      "▁quot": 7432,
      "dition": 7433,
      "orth": 7434,
      "▁l'extension": 7435,
      "▁confiée": 7436,
      "▁indé": 7437,
      "▁effet.\r\n": 7438,
      "▁bâties": 7439,
      "▁préparations": 7440,
      "▁auraient": 7441,
      "▁habituellement": 7442,
      "▁ment": 7443,
      "▁dégr": 7444,
      "▁élection": 7445,
      "▁riv": 7446,
      "avec": 7447,
      "▁formation.\r\n": 7448,
      "▁différend": 7449,
      "▁résulter": 7450,
      "▁radioélectr": 7451,
      "▁d'instruments": 7452,
      "▁plénière": 7453,
      "▁sage": 7454,
      "arqu": 7455,
      "▁public ;\r\n": 7456,
      "▁stages": 7457,
      "▁groupe,": 7458,
      "▁votes": 7459,
      "▁spécialisées": 7460,
      "▁contenues": 7461,
      "ç": 7462,
      "▁arché": 7463,
      "▁archives": 7464,
      "▁concentr": 7465,
      "ceptions": 7466,
      "▁amortissement": 7467,
      "▁passation": 7468,
      "▁normale": 7469,
      "▁prévenu": 7470,
      "▁mètre": 7471,
      "▁dressé": 7472,
      "▁sage-fem": 7473,
      "on,": 7474,
      "te.\r\n": 7475,
      "▁notaire": 7476,
      "▁biologique": 7477,
      "▁fondée": 7478,
      "lèvement": 7479,
      "▁procédure.\r\n": 7480,
      "▁opérationnelle": 7481,
      "▁explic": 7482,
      "▁performances": 7483,
      "▁cat": 7484,
      "▁président.\r\n": 7485,
      "▁adaptés": 7486,
      "▁organique": 7487,
      "▁appartiennent": 7488,
      "▁analyses": 7489,
      "▁administration": 7490,
      "▁réfug": 7491,
      "▁plus-value": 7492,
      "▁tuteur": 7493,
      "▁prépare": 7494,
      "▁fourrière": 7495,
      "▁indésir": 7496,
      "▁etre": 7497,
      "▁chron": 7498,
      "▁préval": 7499,
      "▁instruction": 7500,
      "grav": 7501,
      "▁utilisée": 7502,
      "▁commerciaux": 7503,
      "▁détermine,": 7504,
      "▁loyers": 7505,
      "teste": 7506,
      "▁l'exposition": 7507,
      "▁produite": 7508,
      "▁livre.\r\n": 7509,
      "▁observations.\r\n": 7510,
      "▁démont": 7511,
      "▁incapacité": 7512,
      "▁justificatif": 7513,
      "▁demi": 7514,
      "▁mas": 7515,
      "▁vendre": 7516,
      "ouvre": 7517,
      "▁domes": 7518,
      "▁l'expertise": 7519,
      "▁l'adhésion": 7520,
      "▁institution": 7521,
      "▁passée": 7522,
      "▁d'activité,": 7523,
      "▁télés": 7524,
      "▁humain": 7525,
      "▁distributeurs": 7526,
      "▁reprodu": 7527,
      "▁quote-part": 7528,
      "▁dégrad": 7529,
      "▁déterminent": 7530,
      "▁affect": 7531,
      "▁numéros": 7532,
      "▁226-1": 7533,
      "▁jeune": 7534,
      "▁dangers": 7535,
      "▁autorise": 7536,
      "▁absence": 7537,
      "▁contribuables": 7538,
      "▁professionnelles,": 7539,
      "▁aérodromes": 7540,
      "ainis": 7541,
      "▁pup": 7542,
      "ani": 7543,
      "▁créées": 7544,
      "-1,": 7545,
      "▁1986": 7546,
      "▁contestations": 7547,
      "▁dirigeant": 7548,
      "ry": 7549,
      "arque": 7550,
      "▁passif": 7551,
      "▁représentative": 7552,
      "▁35": 7553,
      "tifications": 7554,
      "▁indiquer": 7555,
      "▁temporaires": 7556,
      "▁pratiquer": 7557,
      "▁s'opposer": 7558,
      "ainissement": 7559,
      "▁professionnels,": 7560,
      "▁copies": 7561,
      "▁notifiées": 7562,
      "▁prévention,": 7563,
      "▁patrimoni": 7564,
      "▁bin": 7565,
      "atrices": 7566,
      "▁mission.\r\n": 7567,
      "▁animée": 7568,
      "▁séparément": 7569,
      "▁sensi": 7570,
      "▁parvenir": 7571,
      "▁34": 7572,
      "▁corrig": 7573,
      "▁physique,": 7574,
      "▁artistique": 7575,
      "▁technicien": 7576,
      "▁contact": 7577,
      "quaculture": 7578,
      "▁pros": 7579,
      "▁assiste": 7580,
      "▁minimales": 7581,
      "▁obtenues": 7582,
      "▁d'incapacité": 7583,
      "reinte": 7584,
      "outi": 7585,
      "▁d'égalité": 7586,
      "▁ministériel": 7587,
      "▁2007": 7588,
      "▁instituant": 7589,
      "▁difficulté": 7590,
      "▁aient": 7591,
      "▁retr": 7592,
      "▁vot": 7593,
      "▁établissent": 7594,
      "-16": 7595,
      "▁placées": 7596,
      "▁possible,": 7597,
      "▁élevé": 7598,
      "▁diligence": 7599,
      "▁absolue": 7600,
      "▁charte": 7601,
      "▁l'administration.\r\n": 7602,
      "▁initialement": 7603,
      "hérapie": 7604,
      "▁horaires": 7605,
      "▁l'occupant": 7606,
      "rè": 7607,
      "▁l'orientation": 7608,
      "▁ill": 7609,
      "▁d'infirm": 7610,
      "▁d'accessibilité": 7611,
      "▁d'emb": 7612,
      "▁rechercher": 7613,
      "▁entrée": 7614,
      "▁éducative": 7615,
      "▁stagiaire": 7616,
      "▁pilot": 7617,
      "▁carbone": 7618,
      "▁aéronefs": 7619,
      "▁réhabilitation": 7620,
      "▁d'entraî": 7621,
      "▁décret.": 7622,
      "▁prioritaire": 7623,
      "▁souscrits": 7624,
      "▁d'apprentissage": 7625,
      "▁l'annulation": 7626,
      "▁réglementé": 7627,
      "▁mensu": 7628,
      "▁présidé": 7629,
      "▁couvrant": 7630,
      "▁hypothè": 7631,
      "▁l'informatique,": 7632,
      "▁améliorer": 7633,
      "▁créée": 7634,
      "▁l'effet": 7635,
      "▁confié": 7636,
      "▁professionnel.\r\n": 7637,
      "▁éventuel": 7638,
      "▁animale": 7639,
      "▁sous-section.\r\n": 7640,
      "▁gratuitement": 7641,
      "▁assistants": 7642,
      "28": 7643,
      "auré": 7644,
      "▁servitude": 7645,
      "▁d'actes": 7646,
      "▁biolog": 7647,
      "▁saisis": 7648,
      "▁délégataire": 7649,
      "▁données,": 7650,
      "tionnel": 7651,
      "▁conclues": 7652,
      "▁indiqué": 7653,
      "▁cession,": 7654,
      "▁famille,": 7655,
      "▁complex": 7656,
      "▁cliniques": 7657,
      "▁impliquant": 7658,
      "▁fort": 7659,
      "▁l'établissement.": 7660,
      "▁84": 7661,
      "▁statuts,": 7662,
      "▁fournitures": 7663,
      "▁compléter": 7664,
      "▁trimestres": 7665,
      "es.": 7666,
      "▁souscrire": 7667,
      "titudes": 7668,
      "ières,": 7669,
      "▁partenariat": 7670,
      "▁envers": 7671,
      "▁adjudic": 7672,
      "br/>": 7673,
      "▁durées": 7674,
      "▁détiennent": 7675,
      "▁intéressés.\r\n": 7676,
      "▁exigée": 7677,
      "▁compétent.\r\n": 7678,
      "▁proposés": 7679,
      "▁supports": 7680,
      "▁organe": 7681,
      "▁touris": 7682,
      "▁métropolitaine": 7683,
      "alogue": 7684,
      "▁d'apprécier": 7685,
      "▁parties.\r\n": 7686,
      "▁transféré": 7687,
      "▁scission": 7688,
      "▁hommes": 7689,
      "▁meilleurs": 7690,
      "ujet": 7691,
      "ulg": 7692,
      "▁l'etat ;\r\n": 7693,
      "▁cela": 7694,
      "▁techniques,": 7695,
      "▁l'intéressé.\r\n": 7696,
      "▁variable": 7697,
      "▁imputable": 7698,
      "orés": 7699,
      "▁nan": 7700,
      "▁change": 7701,
      "▁directives": 7702,
      "▁classé": 7703,
      "▁éviter": 7704,
      "propri": 7705,
      "▁scrutin,": 7706,
      "▁assujettis": 7707,
      "▁survivant": 7708,
      "▁qu'avec": 7709,
      "▁création,": 7710,
      "▁visites": 7711,
      "▁pression": 7712,
      "▁contenus": 7713,
      "▁stagiaires": 7714,
      "▁interprofessionnel": 7715,
      "▁raisonnable": 7716,
      "▁d'arg": 7717,
      "▁revient": 7718,
      "▁arme": 7719,
      "▁rentes": 7720,
      "▁découl": 7721,
      "▁mains": 7722,
      "▁concernées,": 7723,
      "▁salle": 7724,
      "▁d'élèves": 7725,
      "▁signalisation": 7726,
      "▁notification,": 7727,
      "▁fonctionnelle": 7728,
      "▁domicile,": 7729,
      "uffisance": 7730,
      "▁voirie": 7731,
      "fac": 7732,
      "▁dépendant": 7733,
      "▁l'impossibilité": 7734,
      "▁l'éducation,": 7735,
      "▁percevoir": 7736,
      "▁d'esp": 7737,
      "▁établissement,": 7738,
      "alement,": 7739,
      "▁l'efficacité": 7740,
      "▁réunies": 7741,
      "▁131-39": 7742,
      "▁face": 7743,
      "▁entière": 7744,
      "▁émettre": 7745,
      "▁voit": 7746,
      "▁concili": 7747,
      "▁procédés": 7748,
      "▁(2": 7749,
      "▁d'audit": 7750,
      "▁l'avocat": 7751,
      "▁disposition,": 7752,
      "▁asc": 7753,
      "</p></td><td><": 7754,
      "▁stratégique": 7755,
      "▁témoins": 7756,
      "▁d'associations": 7757,
      "▁récapitul": 7758,
      "nant": 7759,
      "▁pan": 7760,
      "▁mer,": 7761,
      "▁cessent": 7762,
      "▁directs": 7763,
      "▁gros": 7764,
      "▁majeure": 7765,
      "▁l'immatriculation": 7766,
      "▁d'échange": 7767,
      "▁d'évolution": 7768,
      "▁extraord": 7769,
      "▁lé": 7770,
      "▁descrip": 7771,
      "▁desdits": 7772,
      "▁procèdent": 7773,
      "▁moins-val": 7774,
      "▁recours.\r\n": 7775,
      "▁cause.\r\n": 7776,
      "▁environnemental": 7777,
      "▁appréciée": 7778,
      "▁s'ins": 7779,
      "▁l'audit": 7780,
      "▁assurance": 7781,
      "▁47": 7782,
      "▁ouvre": 7783,
      "▁estim": 7784,
      "▁label": 7785,
      "▁nette": 7786,
      "▁l'université": 7787,
      "▁proch": 7788,
      "▁veu": 7789,
      "téres": 7790,
      "▁l'inspecteur": 7791,
      "▁accordés": 7792,
      "▁travaux.\r\n": 7793,
      "▁d'installation": 7794,
      "▁budgets": 7795,
      "▁supprimés.\r\n": 7796,
      "▁handicapés": 7797,
      "▁terrestres": 7798,
      "▁s'engag": 7799,
      "▁marquage": 7800,
      "▁l'et": 7801,
      "▁chô": 7802,
      "▁public.": 7803,
      "▁calculées": 7804,
      "▁adressés": 7805,
      "▁l'échelle": 7806,
      "▁l'immigr": 7807,
      "▁progres": 7808,
      "15": 7809,
      "▁canc": 7810,
      "▁démis": 7811,
      "▁gérés": 7812,
      "égi": 7813,
      "▁entrepr": 7814,
      "▁83": 7815,
      "prè": 7816,
      "▁biomédecine": 7817,
      "yl": 7818,
      "llectu": 7819,
      "▁aménagement": 7820,
      "▁déchet": 7821,
      "▁l'enfance": 7822,
      "▁intellectu": 7823,
      "▁francs": 7824,
      "▁payés": 7825,
      "▁audience": 7826,
      "▁meubl": 7827,
      "▁remor": 7828,
      "▁auxiliaires": 7829,
      "▁maire,": 7830,
      "icine": 7831,
      "ocation,": 7832,
      "▁livres": 7833,
      "▁serre": 7834,
      "▁ordonne": 7835,
      "▁immobilisations": 7836,
      "▁vacc": 7837,
      "▁assermentés": 7838,
      "iments": 7839,
      "pareil": 7840,
      "▁réelle": 7841,
      "▁l'etat.": 7842,
      "▁mess": 7843,
      "▁écl": 7844,
      "▁passés": 7845,
      "▁restent": 7846,
      "▁conclut": 7847,
      "▁affiliés": 7848,
      "▁portuaire": 7849,
      "▁introdu": 7850,
      "▁mariage": 7851,
      "▁l'etablissement": 7852,
      "06": 7853,
      "▁enj": 7854,
      "éditeur": 7855,
      "▁personnelles": 7856,
      "▁publiées": 7857,
      "valor": 7858,
      "▁amendes": 7859,
      "▁concessions": 7860,
      "▁exceptionnel": 7861,
      "▁significative": 7862,
      "▁défaillance": 7863,
      "tify": 7864,
      "▁l'expropriation": 7865,
      "▁s'ab": 7866,
      "▁arrêt": 7867,
      "▁align=\"jus": 7868,
      "lles,": 7869,
      "▁modific": 7870,
      "▁sols": 7871,
      "▁comptabil": 7872,
      "▁valoir": 7873,
      "▁financier.\r\n": 7874,
      "▁sûret": 7875,
      "▁entraîner": 7876,
      "▁correctionn": 7877,
      "▁passeport": 7878,
      "▁align=\"justify": 7879,
      "▁para": 7880,
      "▁300": 7881,
      "▁réforme": 7882,
      "▁salariée": 7883,
      "▁rapportant": 7884,
      "▁bénéficiaire,": 7885,
      "▁probation": 7886,
      "omologation": 7887,
      "▁revalor": 7888,
      "▁créés": 7889,
      "▁prononçant": 7890,
      "▁passer": 7891,
      "▁exceptionnelles": 7892,
      "▁accessoire": 7893,
      "réd": 7894,
      "▁nat": 7895,
      "▁nuit": 7896,
      "▁publique.": 7897,
      "▁annuelles": 7898,
      "-cad": 7899,
      "▁civil.\r\n": 7900,
      "▁ordonnée": 7901,
      "▁mobiliers": 7902,
      "▁urbain": 7903,
      "▁échantillons": 7904,
      "ès": 7905,
      "▁rech": 7906,
      "▁étendu": 7907,
      "▁d'actif": 7908,
      "▁55": 7909,
      "▁changements": 7910,
      "▁renouvelable.\r\n": 7911,
      "▁préfectoral": 7912,
      "▁l'hypo": 7913,
      "▁d'irrecevabilité": 7914,
      "▁sinistre": 7915,
      "▁infec": 7916,
      "▁partiellement": 7917,
      "▁loi,": 7918,
      "▁principalement": 7919,
      "▁fonctionnement,": 7920,
      "▁attestations": 7921,
      "▁n'excédant": 7922,
      "▁siégeant": 7923,
      "▁déontologie": 7924,
      "omalies": 7925,
      "cv": 7926,
      "nc": 7927,
      "oeuv": 7928,
      "▁consiste": 7929,
      "▁alinéa.": 7930,
      "▁concernées.\r\n": 7931,
      "▁intercommunale,": 7932,
      "▁ferm": 7933,
      "▁suffisante": 7934,
      "▁élabore": 7935,
      "▁stipul": 7936,
      "▁loisir": 7937,
      "▁rayonnements": 7938,
      "des,": 7939,
      "▁devoir": 7940,
      "▁quant": 7941,
      "▁ile": 7942,
      "▁nécessitant": 7943,
      "▁salarié,": 7944,
      "▁résultent": 7945,
      "▁affections": 7946,
      "▁compétences,": 7947,
      "▁déposés": 7948,
      "▁exprimé": 7949,
      "▁ressortissant": 7950,
      "▁quarante-huit": 7951,
      "▁d'accréditation": 7952,
      "▁discrimin": 7953,
      "▁l'occupation": 7954,
      "euse": 7955,
      "▁défici": 7956,
      "▁n'ap": 7957,
      "▁sécurité.\r\n": 7958,
      "▁majorée": 7959,
      "▁d'étu": 7960,
      "▁présidence": 7961,
      "▁trésorer": 7962,
      "▁heures,": 7963,
      "▁héritiers": 7964,
      "itent": 7965,
      "aissent": 7966,
      "▁publications": 7967,
      "▁l'install": 7968,
      "▁conduisant": 7969,
      "▁intéressés,": 7970,
      "▁initiative": 7971,
      "▁afférent": 7972,
      "▁prévoyant": 7973,
      "▁levée": 7974,
      "▁chôm": 7975,
      "ennes": 7976,
      "▁l'aquaculture": 7977,
      "▁l'apport": 7978,
      "▁dixième": 7979,
      "▁cessé": 7980,
      "ovig": 7981,
      "▁hospitalière": 7982,
      "▁envoy": 7983,
      "▁naissance,": 7984,
      "▁veiller": 7985,
      "ves,": 7986,
      "̀les": 7987,
      "▁pli": 7988,
      "aliser": 7989,
      "▁fondament": 7990,
      "▁privé,": 7991,
      "▁précisés": 7992,
      "▁normal": 7993,
      "▁décidée": 7994,
      "▁détention,": 7995,
      "▁débiteur,": 7996,
      "▁divor": 7997,
      "▁évaluations": 7998,
      "▁d'utiliser": 7999,
      "▁opposable": 8000,
      "▁incidence": 8001,
      "▁confiance": 8002,
      "▁substantielle": 8003,
      "▁prépondérante.\r\n": 8004,
      "▁sage-femme": 8005,
      "▁dite": 8006,
      "▁souterr": 8007,
      "▁l'exercice,": 8008,
      "▁adressent": 8009,
      "▁maintenu": 8010,
      "ographie": 8011,
      "▁refusé": 8012,
      "▁radioprotection": 8013,
      "▁législative": 8014,
      "▁binô": 8015,
      "aul": 8016,
      "▁ven": 8017,
      "▁iii.": 8018,
      "▁frais,": 8019,
      "tionnaire": 8020,
      "▁commune.\r\n": 8021,
      "▁abattement": 8022,
      "▁indemnisation": 8023,
      "▁solidaire": 8024,
      "▁accréd": 8025,
      "▁d'hygiène": 8026,
      "▁bordere": 8027,
      "▁mainlevée": 8028,
      "▁incidents": 8029,
      "aissement": 8030,
      "▁ouvertes": 8031,
      "▁mouvement": 8032,
      "▁d'acquérir": 8033,
      "▁investigations": 8034,
      "▁suspensif": 8035,
      "cvm": 8036,
      "/8": 8037,
      "▁cul": 8038,
      "▁déchéance": 8039,
      "▁nuis": 8040,
      "▁extérieure": 8041,
      "▁l'entreprise.\r\n": 8042,
      "▁vigueur,": 8043,
      "▁accusé": 8044,
      "▁couple": 8045,
      "▁nullité,": 8046,
      "▁parquet": 8047,
      "trices": 8048,
      "trer": 8049,
      "▁aven": 8050,
      "▁principaux": 8051,
      "▁vigueur.\r\n": 8052,
      "▁plainte": 8053,
      "92": 8054,
      "▁médicale,": 8055,
      "▁2012-1": 8056,
      "▁échang": 8057,
      "▁décidé": 8058,
      "▁évolution": 8059,
      "▁identification": 8060,
      "ducti": 8061,
      "▁assistent": 8062,
      "▁plant": 8063,
      "▁publie": 8064,
      "nemi": 8065,
      "▁jours.": 8066,
      "▁conservatoires": 8067,
      "▁tiers.\r\n": 8068,
      "▁république.\r\n": 8069,
      "▁réé": 8070,
      "▁rénovation": 8071,
      "▁l'académie": 8072,
      "▁agricul": 8073,
      "▁jugée": 8074,
      "▁rédig": 8075,
      "▁1984": 8076,
      "▁consécutives": 8077,
      "▁incombent": 8078,
      "▁couvertes": 8079,
      "▁fréquences": 8080,
      "▁préal": 8081,
      "uitième": 8082,
      "▁d'importation": 8083,
      "▁paiement.\r\n": 8084,
      "▁facteurs": 8085,
      "▁apparaît": 8086,
      "▁ouvrables": 8087,
      "▁pêches": 8088,
      "▁longueur": 8089,
      "▁menace": 8090,
      "▁variation": 8091,
      "▁habituelle": 8092,
      "▁cliente": 8093,
      "▁transi": 8094,
      "▁vire": 8095,
      "tifie,": 8096,
      "▁commises": 8097,
      "▁acomp": 8098,
      "▁affectation": 8099,
      "▁spécifications": 8100,
      "▁branches": 8101,
      "▁trouvent": 8102,
      "▁conséquence": 8103,
      "▁fréquence": 8104,
      "oxy": 8105,
      "▁historiques": 8106,
      "▁biodiversité": 8107,
      "▁lour": 8108,
      "▁déconc": 8109,
      "eurs,": 8110,
      "▁adéqu": 8111,
      "▁locative": 8112,
      "▁l'adhér": 8113,
      "épend": 8114,
      "▁combin": 8115,
      "▁bureaux": 8116,
      "fection": 8117,
      "orb": 8118,
      "▁domani": 8119,
      "▁place,": 8120,
      "▁places": 8121,
      "▁armées,": 8122,
      "▁respectivement,": 8123,
      "▁enseignement": 8124,
      "▁recrutés": 8125,
      "98": 8126,
      "▁frapp": 8127,
      "▁nécessaires.\r\n": 8128,
      "▁capitalisation": 8129,
      "▁possibilités": 8130,
      "▁réins": 8131,
      "▁étaient": 8132,
      "▁contrevenir": 8133,
      "▁95": 8134,
      "▁bruit": 8135,
      "▁céder": 8136,
      "▁pourrait": 8137,
      "ulgation": 8138,
      "▁baign": 8139,
      "▁tierce": 8140,
      "▁hect": 8141,
      "▁technologique": 8142,
      "▁supervision": 8143,
      "alauré": 8144,
      "▁acquisition": 8145,
      "▁décr": 8146,
      "▁supérieurs": 8147,
      "th><": 8148,
      "▁renouvelables": 8149,
      "▁administratif,": 8150,
      "accalauré": 8151,
      "ding": 8152,
      "moins": 8153,
      "olement": 8154,
      "titul": 8155,
      "ertis": 8156,
      "bli": 8157,
      "▁industr": 8158,
      "▁exceptionnel,": 8159,
      "▁244": 8160,
      "▁identifiés": 8161,
      "▁suivante :\r\n": 8162,
      "▁s'exerc": 8163,
      "l'": 8164,
      "dix": 8165,
      "teurs,": 8166,
      "▁adultes": 8167,
      "▁technologiques": 8168,
      "▁régularité": 8169,
      "▁convoqué": 8170,
      "▁compromettre": 8171,
      "-à-vis": 8172,
      "ied": 8173,
      "tém": 8174,
      "▁génétiques": 8175,
      "▁bibli": 8176,
      "▁vis-à-vis": 8177,
      "▁financer": 8178,
      "▁compétence,": 8179,
      "▁d'armes": 8180,
      "▁responsabilité,": 8181,
      "▁supprimé ;\r\n": 8182,
      "▁occupants": 8183,
      "▁» ;\r\n": 8184,
      "-conseil": 8185,
      "▁mic": 8186,
      "▁avantage": 8187,
      "▁doivent,": 8188,
      "▁assurées": 8189,
      "-ma": 8190,
      "▁temporairement": 8191,
      "▁scolar": 8192,
      "▁succes": 8193,
      "▁d'experts": 8194,
      "▁pédagogiques": 8195,
      "60": 8196,
      "anmoins": 8197,
      "urances": 8198,
      "▁régissant": 8199,
      "▁dispositions,": 8200,
      "▁non-con": 8201,
      "▁notifier": 8202,
      "▁français.\r\n": 8203,
      "▁agricole.\r\n": 8204,
      "▁vingt-c": 8205,
      "-ving": 8206,
      "ques,": 8207,
      "▁néanmoins": 8208,
      "▁afférente": 8209,
      "▁alimentaire": 8210,
      "▁machines": 8211,
      "▁aéronef": 8212,
      "▁enjeux": 8213,
      "▁application,": 8214,
      "▁affectant": 8215,
      "abilit": 8216,
      "▁enregistré": 8217,
      "▁réexamen": 8218,
      "▁péti": 8219,
      "ouil": 8220,
      "▁chaleur": 8221,
      "ter,": 8222,
      "▁médical,": 8223,
      "▁équipes": 8224,
      "▁satisfaisant": 8225,
      "▁exprimée": 8226,
      "▁particulièrement": 8227,
      "▁l'outre-mer": 8228,
      "▁l'immigration": 8229,
      "▁om": 8230,
      "▁reversement": 8231,
      "ulaire": 8232,
      "▁technique,": 8233,
      "▁recouvrée": 8234,
      "▁solidar": 8235,
      "▁prescrits": 8236,
      "▁aéroport": 8237,
      "▁adoptées": 8238,
      "▁jeunesse,": 8239,
      "▁infirmiers": 8240,
      "▁litiges": 8241,
      "▁situe": 8242,
      "ondi": 8243,
      "temp": 8244,
      "▁ingénie": 8245,
      "▁chass": 8246,
      "compagn": 8247,
      "▁recherche.\r\n": 8248,
      "▁payé": 8249,
      "▁suivants,": 8250,
      "mètres": 8251,
      "▁octr": 8252,
      "▁coupables": 8253,
      "246": 8254,
      "▁vote,": 8255,
      "▁liens": 8256,
      "▁roul": 8257,
      "▁ordinaire": 8258,
      "▁émanant": 8259,
      "ibles,": 8260,
      "▁retrac": 8261,
      "▁prescrip": 8262,
      "▁iv,": 8263,
      "▁distincte": 8264,
      "▁d'infrastructure": 8265,
      "▁non-conform": 8266,
      "mprise": 8267,
      "▁l'eff": 8268,
      "▁d'assises": 8269,
      "▁dernier.\r\n": 8270,
      "▁jugements": 8271,
      "▁financement,": 8272,
      "▁notifiés": 8273,
      "▁fournissent": 8274,
      "▁mixtes": 8275,
      "▁diminution": 8276,
      "▁préparer": 8277,
      "▁vise": 8278,
      "signation": 8279,
      "▁représentant.\r\n": 8280,
      "▁conféd": 8281,
      "▁l'adaptation": 8282,
      "▁restrein": 8283,
      "▁instrument": 8284,
      "▁dénomin": 8285,
      "▁traç": 8286,
      "▁tissus": 8287,
      "▁aille": 8288,
      "▁construc": 8289,
      "éfi": 8290,
      "▁d'équ": 8291,
      "▁conférant": 8292,
      "▁d'assurance,": 8293,
      "▁238": 8294,
      "▁quart": 8295,
      "▁éligible": 8296,
      "▁l'intégration": 8297,
      "▁ultérieurement": 8298,
      "▁universel": 8299,
      ").": 8300,
      "aqu": 8301,
      "jor": 8302,
      "▁lis": 8303,
      "▁et/": 8304,
      "ulsion": 8305,
      "▁attrib": 8306,
      "▁caractères": 8307,
      "▁qualité,": 8308,
      "▁”\r\n": 8309,
      "▁renouvelée": 8310,
      "▁pénitentiaires": 8311,
      "▁dispensées": 8312,
      "▁combattant": 8313,
      "▁2012-1246": 8314,
      "8-1": 8315,
      "▁cant": 8316,
      "▁ledit": 8317,
      "▁détru": 8318,
      "▁envoi": 8319,
      "▁taille": 8320,
      "▁perd": 8321,
      "▁attribution": 8322,
      "▁supérieur.\r\n": 8323,
      "▁systém": 8324,
      "▁commercial,": 8325,
      "▁dispenser": 8326,
      "▁gouvern": 8327,
      "▁réputées": 8328,
      "▁poursuivie": 8329,
      "▁maintenance": 8330,
      "▁événement": 8331,
      "▁décompte": 8332,
      "▁s'étend": 8333,
      "pan=\"2": 8334,
      "hône": 8335,
      "▁unitaire": 8336,
      "mement": 8337,
      "eure,": 8338,
      "▁organisés": 8339,
      "▁échéance": 8340,
      "▁écar": 8341,
      "▁recouvrées": 8342,
      "▁d'offres": 8343,
      "▁d'analy": 8344,
      "▁ménage": 8345,
      "othè": 8346,
      "▁classification": 8347,
      "hib": 8348,
      "tives.\r\n": 8349,
      "cédent": 8350,
      "illage": 8351,
      "▁facult": 8352,
      "armon": 8353,
      "▁déchargement": 8354,
      "▁impossible": 8355,
      "lectricité,": 8356,
      "▁d'achèvement": 8357,
      "▁exonérés": 8358,
      "▁médiation": 8359,
      "▁délibérante": 8360,
      "▁émoluments": 8361,
      "▁prévaloir": 8362,
      "▁minutes": 8363,
      "▁réglementaire,": 8364,
      "▁jour.\r\n": 8365,
      "▁militaire,": 8366,
      "▁milieux": 8367,
      "▁l'habitation.\r\n": 8368,
      "▁perçoivent": 8369,
      "▁menées": 8370,
      "▁pourvu": 8371,
      "▁budgétaires": 8372,
      "▁snc": 8373,
      "acu": 8374,
      "▁gré": 8375,
      "▁hol": 8376,
      "▁gestion.\r\n": 8377,
      "▁carrière": 8378,
      "▁référé": 8379,
      "▁canalisations": 8380,
      "▁modèles": 8381,
      "▁échelon": 8382,
      "▁femme": 8383,
      "▁nantissement": 8384,
      "▁s'abs": 8385,
      "▁déconcent": 8386,
      "▁traçabilité": 8387,
      "c.": 8388,
      "▁emprisonnement": 8389,
      "▁d'anci": 8390,
      "▁gê": 8391,
      "▁raccord": 8392,
      "ins,": 8393,
      "▁(p": 8394,
      "▁autorisant": 8395,
      "▁d'habilitation": 8396,
      "▁locaux,": 8397,
      "troduction": 8398,
      "▁d'expiration": 8399,
      "▁populations": 8400,
      "▁incomplè": 8401,
      "iénation": 8402,
      "̂te": 8403,
      "▁dresse": 8404,
      "▁cont": 8405,
      "▁l'armée": 8406,
      "auv": 8407,
      "▁bat": 8408,
      "▁version": 8409,
      "▁factu": 8410,
      "▁causes": 8411,
      "▁préalable,": 8412,
      "▁logement.\r\n": 8413,
      "▁distingu": 8414,
      "gmentation": 8415,
      "▁audiovisuelles": 8416,
      "▁l'importation": 8417,
      "▁doté": 8418,
      "▁cocontractant": 8419,
      "▁prote": 8420,
      "▁teneur": 8421,
      "▁signataires": 8422,
      "▁pénales": 8423,
      "▁dernier,": 8424,
      "▁mobilités": 8425,
      "onef": 8426,
      "▁assujetti": 8427,
      "▁interministériel": 8428,
      "▁vingt-cinq": 8429,
      "▁sncf": 8430,
      "▁sorti": 8431,
      "▁prél": 8432,
      "▁procéder,": 8433,
      "▁arrêtées": 8434,
      "▁modifiés": 8435,
      "▁iii.\r\n": 8436,
      "▁planification": 8437,
      "▁138": 8438,
      "▁12°": 8439,
      "▁prescrite": 8440,
      "▁l'exigence": 8441,
[...]
